/**
  ******************************************************************************
  * @file    micro_speech_quantized_data_params.c
  * @author  AST Embedded Analytics Research Platform
  * @date    2026-06-28T17:58:17+0800
  * @brief   AI Tool Automatic Code Generator for Embedded NN computing
  ******************************************************************************
  * Copyright (c) 2026 STMicroelectronics.
  * All rights reserved.
  *
  * This software is licensed under terms that can be found in the LICENSE file
  * in the root directory of this software component.
  * If no LICENSE file comes with this software, it is provided AS-IS.
  ******************************************************************************
  */

#include "micro_speech_quantized_data_params.h"


/**  Activations Section  ****************************************************/
ai_handle g_micro_speech_quantized_activations_table[1 + 2] = {
  AI_HANDLE_PTR(AI_MAGIC_MARKER),
  AI_HANDLE_PTR(NULL),
  AI_HANDLE_PTR(AI_MAGIC_MARKER),
};




/**  Weights Section  ********************************************************/
AI_ALIGNED(32)
const ai_u64 s_micro_speech_quantized_weights_array_u64[6090] = {
  0xdf9215e63af7fad6U, 0xe8a518e044eaf6c1U, 0xe4c419e823f5e7d0U, 0xf9dc2b05401413f1U,
  0xf12901461311edU, 0xf5e511fd201afbf2U, 0xfbe023fe3515f7f8U, 0x3e0210635160fe1U,
  0xb50ee127ebfbb6U, 0xd2a5f3d811d6ba81U, 0x3b762917f303f083U, 0x2f6f0e1bddf3e581U,
  0x2968fe0ddcf3e199U, 0x29650108d7eee7b5U, 0x275ef5f3d9f0e4c8U, 0x354cf8f5dbecf2d5U,
  0x273fffd6d2f1efdfU, 0x2931fad6cde9f3eeU, 0xc1ed3cab7f0fad5U, 0xc2f1b3b7a2efebd1U,
  0xe3d71ed435c9cccaU, 0xe3c0fdb2279b9bb5U, 0xd809fdc652f2f4d7U, 0xdec0e0c52377f25U,
  0xf806f810482a514dU, 0xe6ede513fa1f4f4dU, 0xedfadcd8cede0109U, 0xf8f9ede88caab5f1U,
  0xfe2d9bca7c6baedU, 0x14f1dc14f2fd03ebU, 0xe26dc57fe356f4f4U, 0x1b6df164073af3e7U,
  0x1d72e859db2ad2c4U, 0x2f76f463c928b5cbU, 0x2050f319c2fba8baU, 0x3e4e8c0b6b69ba3U,
  0xd2acc686989da4e0U, 0xd3d3dedbcb20f443U, 0xd6d50def0b4f6374U, 0xd4a5e6d607245659U,
  0xdfe2f9aff0db06e3U, 0xd5d2c4d8e0ddd9ffU, 0xece6d3de0d1d1ceaU, 0xe6d9db051c1a30f5U,
  0xc9aed5cbff15262eU, 0xdec6e2ee36003214U, 0xe7bff3d42603510cU, 0xf6a6f1e00d2d43fcU,
  0xd3c3faf43a0e7ff8U, 0xf0c4e0fa533077eeU, 0x82bf423ec51d124U, 0xef25d828e16bf162U,
  0xd003c41ecb6af96fU, 0xccf3cb07c565fa7fU, 0xd1dfd6fcc14bf16eU, 0xdcc6e6dfd12f0455U,
  0xe3bbf8c6df180b43U, 0xfcc308b7ed041528U, 0xfe40cc9dadb0f08U, 0x12e813d5bdb5d5ceU,
  0x23df11dfeef2ee07U, 0x19dd11e8f404022dU, 0xf5d7fee8ef13f746U, 0xf3d8feebf221045aU,
  0xdbd1eaede22df368U, 0xdacde6eddc2ff975U, 0xd7d9e100e33cfd7fU, 0xd5dcdc00e147eb67U,
  0xddfae422e84be341U, 0xfb31f746ed3bc60aU, 0xc8b6fafe211f3d23U, 0xc5b2f7fa1a182a1fU,
  0xcfbdf8f11220221dU, 0xd2a702ee16272c2aU, 0xdba800e80c312238U, 0xe7affcd508361c43U,
  0xf3b2f4c9ed270940U, 0x6bdf0badb0d022fU, 0xbcce5afb3d8d705U, 0xfbdd4a681b494caU,
  0xae00000000U, 0xffffffba00000000U, 0xfffffddd000000a1U, 0xfffffddcfffffeebU,
  0x21e009fe11dd031bU, 0xe217f4f9e3fd011eU, 0xe813fbfcd1000508U, 0x16e81eece003fb1dU,
  0xecd01807de0222f7U, 0x10d42ae5e90dfcfaU, 0x17de17e8cafb1006U, 0xf5e1fff1d7f7eef3U,
  0xcfcf50df213eef7U, 0x19f906dbd42104ffU, 0xeded1fe1d5e61519U, 0xf8e7e804fdf70211U,
  0xf1e0e0faf0101fe4U, 0xffcfacee519e727U, 0x18f6ec0608dd0df9U, 0x5ec09f5f0ebddf3U,
  0x110014e20a070c26U, 0x2711f518fef42414U, 0xff917e407f6e8U, 0xf07190dfbf8fd03U,
  0x2b02ec0df0070524U, 0xec2d1b4b09fcf8daU, 0x25200d03e5eeed08U, 0x8c3eae9200b2400U,
  0x4d8140501e40f16U, 0xdc9fee8e6eaf2ffU, 0x1af21ed916020e0eU, 0xf5e3dd08d2ecf3f2U,
  0xe10f09f905180d26U, 0x1aff13feead9eee6U, 0xad708030be81ee2U, 0xefdcec0827f5daebU,
  0x1ee20cdd06e2edebU, 0x2ad014f4f2d404deU, 0x2ef90afa15f50801U, 0x7e00e0edf19eceeU,
  0xece1f6faf1feff0eU, 0xf1ee71105dc07faU, 0x1d121ce8fd06d8f9U, 0x1b023b0c26f6df19U,
  0xf527db2302f9070aU, 0xf409f10df82c1de8U, 0x36102b01e2e8f9fbU, 0xe2ceff0ef1f00a08U,
  0x4cfdb151d010704U, 0xee2d7030dfe22f9U, 0xf5f1f8d71c2dfb0dU, 0xd6f5e9f21713e2U,
  0x2e507f4d8282af3U, 0xfbe3e7e808fd07f5U, 0x22d405ed08faefe9U, 0xdef61b18e90d0bfbU,
  0x11f10b0907fb0003U, 0xeefd010e1704f420U, 0xf5e0fe231ee51e11U, 0xdbee12030df3f8edU,
  0xfff8300d27fa18eaU, 0xed9f4ef0b13e203U, 0x12063bf4ed0c15d2U, 0xf0614ff09eff0efU,
  0xfff903e0fee8f738U, 0x1112f3ebe3f50704U, 0x1720e3ec05ffeb1bU, 0x3d6dafdf408e4f7U,
  0xf2d01d050e0307U, 0x10eee10223e5fff5U, 0xf2caec130c04f909U, 0x11e4ead5f604010cU,
  0xe4dc0326ff25fc22U, 0xebd9dceb10d80705U, 0xebfde0fd17272dfeU, 0xce5060ff4061d0dU,
  0x12f713dcfcf2eef5U, 0x14feff041cfffefeU, 0xb070ef709f9f701U, 0xec00f3faeb0ffb0cU,
  0xd9f0fb030e050ceeU, 0xeb01f0fd03e010dbU, 0x3fb1ff1fb03fe04U, 0xd130f0ff4180d0cU,
  0x5f2ed05eaeef73dU, 0x1ef52500e90c0927U, 0xf219ff260cf4ef0fU, 0xd0f4be04fcd207ebU,
  0xd6ddf9ed0d28d7feU, 0xe6f9d000dd23f325U, 0xfe01cff9ea070aebU, 0x705c517f7fae22eU,
  0xfff8e901fcf5e725U, 0x2daee1ee706f903U, 0x9040dfe09f30331U, 0xf303d4fadff225U,
  0xf8f2faf402f3f4f1U, 0xdce8f0060edc0f04U, 0x1bfae8e02a29fd07U, 0xed01eff629dd0efcU,
  0xf7f4ee270113e00eU, 0xebfcfe1fe909031aU, 0x6f60515050f2429U, 0x1d0e0d10d500171aU,
  0x210cef0ef7f9fa41U, 0xefeae329ffe80d1eU, 0xeff8c7151cf8f007U, 0xe7e0ea24ef0ae50bU,
  0x3bcf12ce80cf801U, 0xdae1f1f7e7d203fdU, 0xeae1e4e5110ded19U, 0xfff1e6f3eaf3f433U,
  0xeceee313f60cd10dU, 0xec0ee9eae1f3d522U, 0xf0e50a06edf8e836U, 0xefafc12050e0103U,
  0xdfcf08f514f515fdU, 0x12f401e62e2a040aU, 0xec02ee2812daff00U, 0xdade19d90efdf8faU,
  0x4d6050f1d23d300U, 0xfe19f61816f22823U, 0xf7131afb01270632U, 0x1108fe08ea15272cU,
  0x1523f00807ebe93aU, 0x280c0e05ebe4010eU, 0xebf7dc06ce12ee1cU, 0xe5c5c9f7effa0008U,
  0xe80ad702fbf4d826U, 0xef01ddeeebf3ca0aU, 0xf3feead3e3eddb0aU, 0xc4c0c8f4df070a2cU,
  0x4eee9110b0ff72aU, 0xf702df2911f5dc03U, 0x1901e3e204eb160aU, 0xdee3f50811f20520U,
  0x1703f7fc1bf51528U, 0xfa1bdef50a14ed15U, 0xefead8fa31fdfd1eU, 0x503f0eefbdde602U,
  0xedf6f22a1df00120U, 0xbd20ed3f8d9f416U, 0xfe0834dc252ed422U, 0xe04f80f101a0e30U,
  0xae9f9ffeb0ceb34U, 0xe3f2f70de3f70d1fU, 0x1ae4d3fcf5f604f4U, 0xe1c7c4e2eef30f37U,
  0xf1dbb6faff03dc2eU, 0xeccade14f014fc27U, 0xe8dcd409ed10fcf9U, 0xe7ecd6ed24e8ec11U,
  0xdf5f213f314f52bU, 0x30adfeeffecdc33U, 0xfc01f22509e30c2bU, 0xe703e2221afd04f9U,
  0xff20ea1a19190e1dU, 0xfbf0e2df13200018U, 0xfeff050430fcf51cU, 0xf2e0f90d0cfedf3fU,
  0x1ee0fbf414f6f326U, 0xd6091cf8fd06e92eU, 0x14020fe40e1c0f33U, 0xb08ffff1507f921U,
  0xe3f7f3f7e50af628U, 0x1f06f8fdec1c1321U, 0xfadbbdebe1e7ef19U, 0xd1ceac11fdffee2fU,
  0x60bddf2effaef23U, 0xd6e2effffe0be526U, 0x9d2ea0b18e2f212U, 0xdf12d201ff0ae712U,
  0xec04d6f7fd06d041U, 0xe9f201131ff70920U, 0x1708effb08ffe7fdU, 0x1e0fa0118090103U,
  0xfa0bd3fc3df20e0dU, 0x6efe0100cfa0225U, 0xdae0e00c0dfdf230U, 0xedfaf30f0c21d910U,
  0xe6e7f701ede80b1dU, 0xdaf6da152b10d41eU, 0x12c2c09ecf617U, 0x11f50b0716f81c3cU,
  0x16f12422e3fc0524U, 0x10a0620defb130cU, 0xdfcdcbf115d4e521U, 0xded1e80c050cd12bU,
  0x1f5c6040618e42aU, 0xd7d1d91deef6f900U, 0xdfd3abebf9f8e718U, 0x4dacfe01220dd0cU,
  0xf913cbdd04f1ee14U, 0xf5e1ef070105ea04U, 0xeef32f23e50ff8U, 0xbd6041e2019ea0fU,
  0xfefffe111704f9ffU, 0x141702050415f018U, 0xf3f3d12110f6d60dU, 0xef11f610182adc0cU,
  0xf4f0101625fc031eU, 0x15e903fe1101fa2bU, 0x9e2f0080ee7e41eU, 0x1bfe0f0e0f0af310U,
  0x180ceeffc4ddf11eU, 0xdbfae318e41ef617U, 0xf8f7b41509f8f216U, 0xf4e7baf2fcffe127U,
  0xe4d6cb191103f822U, 0xebedba1d1023d014U, 0xe5fff001080dfb11U, 0xf9fdd5ea00ffe908U,
  0xe3f0daf80301e023U, 0x4fdc8e209e9000cU, 0xe9ec07f525e4dc00U, 0xe512fe011becf70dU,
  0xf407041512f9050aU, 0xbf4e9e532fc020aU, 0xd06e91af912e209U, 0xee701080e12fb16U,
  0x300fd2824080008U, 0xfb14f301fd050e11U, 0x12fcf6020201e70eU, 0x1809210630011e11U,
  0xdf03e214e20c041dU, 0x15ea1010f80dfd17U, 0xe2e2d6dff5f2f61dU, 0xb7f0cef7ed03e33dU,
  0xe0dfc615f9e2da17U, 0xccd3d0f1e11ac912U, 0xdf2ca13f800de05U, 0x20ac3e70900d71aU,
  0xf701fef0f5f9cc10U, 0xd600e1e80614e6f8U, 0x1b10daf50d0116feU, 0xff18ed0423f5ed06U,
  0x1f0909262b1c0cf0U, 0x11f180512feeb0bU, 0xf0da0502130cce25U, 0x6dceef3040afe15U,
  0xedf8fbf52713e70dU, 0xece6ec0e1316050cU, 0x1d1a16ff0eecef05U, 0xd0f1501f621fd15U,
  0x13f8fe08f42bed2aU, 0xe1fdfa20ea1ef71eU, 0xc902c8ea13f1101dU, 0xdad7c917f0dbac32U,
  0xe0f5b909dcffd022U, 0xe5e7c7040118ce05U, 0xf2efbd1205f7e509U, 0xffe3d01a230fd703U,
  0xdff0d3121b06ed17U, 0x5ecf70511fad2f2U, 0xf905f6142513f6fcU, 0xfc14fc17f80e15faU,
  0xe8f7e40f14fc20f7U, 0xb13dc0b2616ef03U, 0x20a081426e9f907U, 0xdae104ed37f2e6ffU,
  0xede9ef140c12e704U, 0xeff7fa00240bf3fcU, 0x8f6df021513ed12U, 0x1a0c14fc080ce709U,
  0xf006e1fdd401f02eU, 0xdfe7da06000c0d0fU, 0xeed7beddeef8ed35U, 0xb1d19f04d80bd02aU,
  0xf9bfad10eeeadc1cU, 0x8e3c518220bbe01U, 0xeb02dcf30302c605U, 0xcce5ca031ae8c413U,
  0xfad3dbff1ef8fe14U, 0x7f2e3171fe8f00bU, 0x108ec01140a08efU, 0x1108e51613fb21faU,
  0xde07d910fcf029feU, 0x2e6042924f918ffU, 0xf20c1dfd0becea07U, 0x415f71c10e9f8f4U,
  0xfbe10f0c22ece3efU, 0xfeec0c171219d7fcU, 0x18e4e71d1f361bf9U, 0x140a0700f62af7feU,
  0xd716fcfbf01dfc2cU, 0xd5eb11f1f613f114U, 0xe2f7b907f614ec19U, 0xe0e9c21ac9ffd937U,
  0xfee7ded8d001cd24U, 0xf1faace2080ded18U, 0xdaf6d9f3f530ed00U, 0x1e7b3f90401d707U,
  0xe002c1f20e06f116U, 0xf6e3e4f4e816d511U, 0x29f708ebf10a0bf5U, 0xed01dc0dfa25fbf1U,
  0x1fafefa1e071ffaU, 0x22eef7011305ecf1U, 0xed03d0fa29310cf0U, 0xf9cff41a0b1df6fbU,
  0x4e1e32427e90cf5U, 0xf5f3fa00130209f6U, 0xaf9ef1911eb03f8U, 0x15f70cff09202004U,
  0x1ef6d9e3caf9fb2cU, 0xdb08ed07f00d0e20U, 0xf9dedaf2eef1df0dU, 0xd3e1a5ded702c231U,
  0xd7e5db00d60dbb33U, 0xd9d7ace418e0df11U, 0xd3e0e7081afee5ffU, 0xe4dafd1ee712d30bU,
  0xf3edc90b2b27d916U, 0xe3c8e12c26eddcfeU, 0xfceff2021d0f1201U, 0x1a09e5fa2512e7f6U,
  0x801e011101317f2U, 0xecfedb021a101de8U, 0x206eaf52f01e803U, 0xe6faec07150ae9f1U,
  0xebee08f5071604f8U, 0xf900f810ff1bfef8U, 0x11db09ec051ffbeaU, 0xafc0f0f2032e1ffU,
  0x7fafcd8f0f8ec23U, 0xdeeae800f71df416U, 0xe3d0dbe0ecf3cd29U, 0xbcdee406e821c844U,
  0xd5c9b6ffd7faad1cU, 0xdc03c320da09cb13U, 0xd8c3fb2612dffeU, 0xe2e7e2220110d20bU,
  0xd8d7d31b20f6dc0aU, 0xef6f0ff0ae6d008U, 0x1bf3f7ed100f13e9U, 0x14d1cf100ffa13f5U,
  0x200302170a0bf0efU, 0xee0706ee16feeb00U, 0xfcfa0b330efcf7f0U, 0xdefcd6e8f30801f8U,
  0xf1cee92a051bf0f7U, 0x21e3d0daf61212ebU, 0x25c7fa0925e3fcf5U, 0xf0b020d0226f604U,
  0xdef0000be704f135U, 0x5ece02bf815f72eU, 0xd1ffa3f2ed00d915U, 0xb0d9ca12daeed13cU,
  0xe1fdaf11dd04c629U, 0xd1ddb3fa0a16af09U, 0xeae2b301fc16cc14U, 0xd9f8e10aff17d005U,
  0xc901ca280a1bb404U, 0xf600b9ff02fbff04U, 0x26dfe704160adfe0U, 0x210bf4130c1bedf0U,
  0x2918db072f0b2af5U, 0xfaff162101221b05U, 0xdfedf91c1bf4fafcU, 0xe913edf430ebe2fdU,
  0xfef5ef070806fff8U, 0x620f20d192b18eaU, 0xfecf5e7220911fcU, 0x160f03fb11272aefU,
  0x10f3fed6f0070437U, 0xde0ef5100c08f12aU, 0xd8eeb8f9e4fae923U, 0xd4efbd06f3ecb444U,
  0xc5d0c2e8d5eca01cU, 0xf0e7b70fed16ad06U, 0xe8c5c2f711f6d905U, 0xf5fab8fc07fabf0fU,
  0xe6e9c3f71d11db0fU, 0xee06cc15151be801U, 0x1918e30f163206f2U, 0x716daf011fe0df0U,
  0x1c10e50d0b0208edU, 0xf81a0fe8feff04f1U, 0xebf7eae90aedf0dfU, 0xf005dbea08e5d9f0U,
  0xc311f5020bfaf6edU, 0x16e910f6381403f4U, 0x1fb0a002d00e9f1U, 0xb0cf910241001f0U,
  0xe90012d8f3e3fd49U, 0x8f40809f8d50415U, 0xe405e0e8ea03d926U, 0xede8c3f6e1ddcd37U,
  0x3e3ba080414ad42U, 0xedd8b12003d8ae1aU, 0xcedcf07fd15cd27U, 0xd6f3d72ff023d601U,
  0xe6f4d212241bd405U, 0xf402ea24060d08e9U, 0xf607e7e4f9fb00efU, 0xdf10cff2af5dbeaU,
  0x18e7e4edfbf90ff1U, 0xff21e7242b230cfdU, 0x20a11122303f8f3U, 0xb17f11a02151df7U,
  0x2fce62122fef3f4U, 0x19dadaef0c2201ecU, 0x170200fb2301eaebU, 0x1505000c1ffd0af3U,
  0xa07f0f1cedeee47U, 0xf0fbe3f1ea0df230U, 0xd3fcc1e3ee03ec29U, 0xc4d1b5ddeb25a935U,
  0xefe7e70bede2cb3bU, 0xcc06c8e1f918bf18U, 0xe3d6da180700cb17U, 0xcfe0b316d90fd30eU,
  0xebd7c502fe28d80bU, 0xe6f30119fd0cec0fU, 0x160aec03190712faU, 0xf07e60bfa05f4f8U,
  0xe6170a1c2a0e05e8U, 0xe5edf10b16f3f7f8U, 0x1d18f1fbf5f007feU, 0xfce5d7f20f18d0ebU,
  0xede0f224310decf5U, 0xf005f5fe0b130fdfU, 0xf5f1f708f6ed25ebU, 0x19100a19f419f4edU,
  0xeef1fb31ec0df652U, 0x31be516f8d1f147U, 0xc6f5b7e2fee6ec3fU, 0xd0c6b0faee17ea4aU,
  0xeccfba300a12e134U, 0xdae8ba03dd04b625U, 0xcae8e315ee16ca06U, 0xcdd9dd19eafec422U,
  0xf9d6bcf129ffcf19U, 0xe7def1fadaea12U, 0xfa02eafefa1b02ffU, 0xebe4e310051bd5faU,
  0xf60feaf8f7d81c04U, 0xef1e18f22d270817U, 0x7e1e50c2b0de800U, 0xd2cec0f3fc02f6feU,
  0xfff008f6f106e3faU, 0x602fd0aed07fafbU, 0xffb05261314f7U, 0x1419fb0f1638fb03U,
  0xd4e0fce9f2f61663U, 0xefec18fee3e02048U, 0xe3e8c4f00202ed67U, 0xe7d5c6ea0fd3c97fU,
  0x601c409c8ffde6fU, 0xfbf5caf9e7f0b85eU, 0xce7d20b060aba4cU, 0xce0bd32401f7c827U,
  0xd1d4c4fae6efc920U, 0xfff2c8020722e11fU, 0x8dd0518f700010dU, 0x22bec26f026e505U,
  0x801df22f6e70c0dU, 0xeb1503091b0b0d02U, 0xe4f5eee31304f310U, 0xc70306f0221cf206U,
  0xd5e6dcf10e1bf20bU, 0xf504f9fafb03faf6U, 0x1fee70af821fb08U, 0xb010d060a01f603U,
  0xd7191ae3cceb1760U, 0xe5efe702d70b223dU, 0xdf9e2edb7182147U, 0xf212c6edf9eef153U,
  0xe605b714ef38U, 0x5f7b626f219e743U, 0x6ecdbfaf22af419U, 0x8f1c4efd00af921U,
  0xdb19ecf5f8dbef26U, 0xe6ead515f8060414U, 0x81d0717e219fbf3U, 0x11d7ec11251800fcU,
  0xb1310e3f3f506fbU, 0xa05f41fecdf2f04U, 0x5e8f1100314f00dU, 0xc9dcd9fc0a25ebfaU,
  0xf2fdf707f00a0efdU, 0x40bf9fbfaf1f7f4U, 0x804fee0190feef8U, 0x1713fdf6f71604U,
  0x17011dfcf016fe64U, 0x330b0f0dca09045bU, 0x1112a9d2bfed2733U, 0xfb04c6ffc72f0760U,
  0x3c06baf0e7fc1760U, 0x18fbabf2ec1af835U, 0x9f69df3e5d7ea1cU, 0xf7f7bbfefc22f828U,
  0x517af04d8040727U, 0xaf1b617fbfeff14U, 0xf907e9e10fd4feffU, 0xfb0dee0afc16fd08U,
  0x2803e006e316340aU, 0xaf8bef20ef02320U, 0xf604e1f8fb271b0aU, 0xe3e0cb290215f60fU,
  0xf720c103f5fcfdf8U, 0xf519e9dc020d08f0U, 0xe0dfa14f31af915U, 0xbf70af700071ffbU,
  0x1930f21503eabfbaU, 0xdb133fed00180ac7U, 0xedfcd806f8fdce01U, 0xe90525d6d72a1d3dU,
  0x40213170cd01ce9U, 0x22fae508e73fff1aU, 0xf0ff9fdd5f8ec10U, 0x2bf0ebfd1cedcb08U,
  0x33f5f8e5e9f7f2f3U, 0xe50602f607ebe301U, 0xeeffdac62bd0ddfaU, 0xf3fdf100e713fffbU,
  0xe5f8d42804f8f0fcU, 0xe403d8e0050d051eU, 0x142112e402f4f22aU, 0x11d925da093b2322U,
  0x1b00f40b3ae2fb27U, 0xdb02e8f91a08f806U, 0xd60105eafecdf21bU, 0xdefa07001c10eaffU,
  0xea1dfffc010a08d2U, 0x3ddcd1da270825efU, 0xd7f611010f221c20U, 0x313d60718c2ea2dU,
  0xe50e15f213d0cc14U, 0xff071e03de14c301U, 0xd1fefb0af71f12f1U, 0xd008d2fdff2f0910U,
  0x3d0c2408fc0e44e1U, 0x8e224eee0e9c817U, 0x2a071adafdd33128U, 0xf3ed22e7fc25e012U,
  0xf20534dc0a03f40aU, 0xe1ee10e814280031U, 0x8fe0402eb0addeaU, 0x2306e9e8dff5f803U,
  0x28f0eae3d31024ecU, 0xfee9291dcbcdfc0aU, 0xfe3118d9f6dedeU, 0xfcfdf306092512c1U,
  0xf4e1f1bdeaf901f8U, 0xfcf2012f07d8f4daU, 0xeae11221f6e7de02U, 0x11a11d0ed2126efU,
  0xdbfce5ecf9c3f41aU, 0xf01a0612f2ea301dU, 0x251b1efaf313fd22U, 0xcfe71308ea0004d5U,
  0xddf4fcf90737f1U, 0xb9e302fefffc1cebU, 0xda07002ee7f2ddd7U, 0x5fa31d0f0de1f24U,
  0x2915e02feb1f46c1U, 0xf6012919e129f607U, 0xf7fefed3e50dd417U, 0x1ffdf8d6e3eeeed9U,
  0x2f0beff1f70918fbU, 0x80739f9f3f110fbU, 0xd0fff04ea370901U, 0xf80308f01c04edfdU,
  0x1cce3e26040bf8ecU, 0x9dec606f617fae7U, 0xaf200f1f206fae9U, 0x1e0bfe1810060a0fU,
  0xf8fffa0bfd2805c4U, 0xfb061935eae51c29U, 0x1b0b28e7f614e01dU, 0xf3e2f4cc0cdc0639U,
  0xf6d92804ee23f7d9U, 0x15be16eeec10e1e6U, 0x2afaf315fa062dc5U, 0x61d122cef2b060aU,
  0xe6121e0dd9120ff4U, 0x6170fe5e1beed1fU, 0x1d0f1eccf106eeffU, 0x3f50fc9fa260b0bU,
  0x20f434e6091002f8U, 0xe9c90d2d0340f0f7U, 0xf4f9fddddef816e2U, 0xf8180bf631cacbdfU,
  0xc1e92c0cfcfa08c7U, 0xc8302827eaf2e0d8U, 0x26f7fbfcf309bdfdU, 0x1006070c170a25fdU,
  0x35150102ee25021aU, 0xf20e02dc05dff2f8U, 0x1a03de45e8d4c82bU, 0x19f810deedfdcae2U,
  0xffdb14fe0b0b1be7U, 0xdfcc11deef38f9eaU, 0x2b1e170217ffece3U, 0x330a2c0af9f52b0bU,
  0xfbea31e7bf2c0a20U, 0x25fe1cefdce2e7c9U, 0x1dfc1ffaddc611f5U, 0x82030f206e9dfefU,
  0x2a1045f1f72efddeU, 0x5ef39fef3e00611U, 0xfd0518342ac40dbfU, 0xc130e0314e8dcc4U,
  0x127cd01fc02ecccU, 0x1bebf0203302dce3U, 0x1b05050a21efc8d8U, 0xa0511d7da1ad4f8U,
  0x223903d4f906d9e4U, 0x1e1aefebc302eefcU, 0xdffbeceefa20b708U, 0xe600ff23e8fdbfcfU,
  0xf3ebf427f9fedbf4U, 0xdbe9010de91ce0e1U, 0xf9e91a150429f307U, 0x122021e5fb0a11fcU,
  0x11f324e1d24114ecU, 0x1fee0bfedb0ae4cdU, 0x4f301cc9e10119efU, 0x56f743c8cb080dcfU,
  0x17013a04f9100022U, 0x17fe330c16f3fad4U, 0x6022eebee0dede9U, 0xf501f6fd2fecf1f8U,
  0x19fd06fdf7faf5cfU, 0x29cb02e704fedcbdU, 0x1ff908e3f6f415ddU, 0x2624fd010e1cbfe0U,
  0xf2614e6dd00cdffU, 0x2e03eef0cf17e1f8U, 0xfa07e9fd0c0fde09U, 0x604dd0118e4d605U,
  0x23ded4e2fedbd9e1U, 0xf5f61c1ce5ff0db1U, 0x21ef1ffe191006c8U, 0x282f15ebec0802d4U,
  0xa1431d8e2ecf4e6U, 0x2dec07ffcddd03fbU, 0x401e19fad82ef7feU, 0x3dfa41d3d8faf2c6U,
  0x20c430510251505U, 0x19f32e2427fddecfU, 0x13f71bf021e218fcU, 0xffe8fcdcf4e4f6U,
  0xf60ee8dd0af1e9d5U, 0xfbf60d092df6e4e0U, 0x32fa153105fcd500U, 0x3b1d1736f107e7e8U,
  0x2c3c01ece10ae6f7U, 0xef0feef6ea1fc9f2U, 0xb12da2a05f5f7ecU, 0xf5f9fbfb2403ebfdU,
  0x24db0a4024f30bf8U, 0x22d7f90701fa23d6U, 0x230421ce0f3a02dcU, 0x21270707063128d1U,
  0xfeea2fb4fbddc7ceU, 0x231014f2db08e9ecU, 0x24fc24f9e3e4e7e9U, 0x39fe27edf7cbe402U,
  0x2dfe4bfef226c90aU, 0xffc43e907d51008U, 0x19f523d03009faf7U, 0xf600efe0f6ea12ebU,
  0xe9cfe8e700ff0cdbU, 0x1512152526f3f7e7U, 0x43100814edeed2f4U, 0x392312fa110d18e0U,
  0x49390dd9da10d610U, 0xcfa13e7ec1afcf1U, 0xea20df1000d3fb09U, 0x1618e2181017f0f5U,
  0x46feffed15d2f8ffU, 0x6ee16c604f531ecU, 0x442419eb100d25c2U, 0x381226de03e9f3e7U,
  0xfc131df9f1eee407U, 0x1b06fce2d20520fdU, 0x3b0c1af4e81401f4U, 0x3b0e17d0f3e11cf5U,
  0x1c072807f7f20e02U, 0xe72f1d1eedfe1bU, 0x7fa140e2015defeU, 0xf3eaffedf332050eU,
  0x511232bf60af6e5U, 0x3c25f4b708e5f0ddU, 0x2d0e18e117e9f4fdU, 0x520d23e5e605f700U,
  0x25210f28eb49fbf2U, 0x252ae705c43ce7f7U, 0x12c804f00cf1f4U, 0x1c14d0fc1a1ff4fcU,
  0x420d172c402520fbU, 0x1ffcffe512dc49adU, 0x3e131deb1211e1e1U, 0x191820f6073530d0U,
  0xfe0d1d0ef21adbeeU, 0x100a0909e8e9f808U, 0x200315e7d6e4e6faU, 0x51f325d2ecdb050dU,
  0xffd4107edcdc108U, 0xb0431000225edfeU, 0xbdc1f1d2124f80aU, 0x8f2fd080b29feeaU,
  0x1c201203eb03e3eaU, 0x1dbd24d7131bdefbU, 0x40043d12032321e8U, 0x3c1a1609f0e8eff4U,
  0x402f1413d3fbf6efU, 0x2116e701e13ad30eU, 0x1c0ddcf8f6ea162fU, 0x2b05ec232cf90cf9U,
  0x2b000a332a0e10f9U, 0x31cb0af83f282edaU, 0x30272ee90e3c17e1U, 0x3e170ce319f023feU,
  0xee140bd7f5251001U, 0x8f000e1e13ddf17U, 0x3a0c0ad0ea4102f6U, 0x35041cdaebedf10cU,
  0x112724f7f2e7ec07U, 0x27e531cc13f7021dU, 0xfc0a1e2704eb181eU, 0x3f814f30b1b0f0dU,
  0xfc0d04f5f91cfbeaU, 0x42e209ca0119fbefU, 0x4e0d19e60a0c5be9U, 0x4f1d18e914012a07U,
  0x52300ff1defbf213U, 0x1c11e704caffd320U, 0x1b0ef0201028e416U, 0x1404d8fd0f01fe0cU,
  0x45f009001ee51f0eU, 0x30fb10f211f134d0U, 0x3f1c16e725db34e3U, 0x33182cfdfe0903efU,
  0x220611caf423d7e1U, 0xf6f701d3ee14e81bU, 0x3d01fac6f7fb0a2aU, 0x2c1126d7ef0d1418U,
  0x13032412ee2af00dU, 0x2dd40e619e8cf08U, 0x1a001c060401d81bU, 0xf4ff02eeea26fbfeU,
  0xecda00bee0f6f1f8U, 0x4bc020bcfbf2e109U, 0x53f719110c052301U, 0x5d2d1ace09d81325U,
  0x4a3201dce2450907U, 0x2828f910ed38e622U, 0x2519f3e50933fd1aU, 0x3310021721051812U,
  0x29f50011291622fbU, 0x2fdf09cd24df3bd6U, 0x43272af41fd534ccU, 0x1d352502fe0e1be1U,
  0x310c0e03ff05f600U, 0x1efd07bafced010fU, 0x341911edfa281704U, 0x3b0025e4ea01fc07U,
  0x1d0a33c7ece4d722U, 0x100929d7190fe304U, 0x160d01e91e21e81cU, 0x3fa02ed1e041df9U,
  0x1fe40f08fb13e40dU, 0x4d183df2ec19eaf8U, 0x34f71ee11e335cfeU, 0x50170f000eff2730U,
  0x4d2103faeaeaf3fcU, 0x131e00fcf8f00301U, 0x2823e61202151b1dU, 0x4510fbed2028021fU,
  0x2606f40e2aea3fe5U, 0x1edb16101bf434e2U, 0x433f24f01a132ac6U, 0x2339140d022618fbU,
  0x110615d80519150fU, 0x10e2fdd1e128e90cU, 0x22f30bfede1f1c02U, 0x2d1119e000ebf3fdU,
  0x1a2416f10df81214U, 0x6dd242ae6f5fb1bU, 0xfb071ae50cfa060fU, 0xa00f7001320d401U,
  0xd9f3eee2ea33f8ecU, 0x4900f0dbf8e5f103U, 0x31f81002fc237001U, 0x3bfc1d27f7264223U,
  0x383c0fe2df42ef15U, 0x280eec08ee07eb34U, 0x1b13e5041013012aU, 0x371bfa1f21331dfeU,
  0x3f1de9f42e0f09edU, 0x31eb0c371ddf34efU, 0x32381a0203e554d3U, 0x2e3110ebf9f11500U,
  0x240523dbf50afdedU, 0x902ebe90825e9eaU, 0x211709ffe6051cfeU, 0x290419e3eb35121dU,
  0xd011fed1519e81eU, 0x15102a02ecf5f10aU, 0xfef905e233ff260aU, 0xf502f2f2e2ce0601U,
  0xf428e1e6e30ffce7U, 0x48f728cdeac1eeedU, 0x310713c20d0e6bedU, 0x4323fe2f030d2c19U,
  0x3e3b25eee507113fU, 0x143af8efea16e732U, 0x212be1ec10fc2224U, 0x3430e9f820301724U,
  0x35f8ec0d2610fb0bU, 0x18fc0adc073c3bf3U, 0x3337270a05f634e4U, 0x19230af4f5363800U,
  0x23eb05edf51700f0U, 0x8fdfe01f3f3f5ffU, 0x3d0d0db6da06f612U, 0x34000205ea0af511U,
  0x2c0727fff8f90a02U, 0xdf81df80f39c90fU, 0x1c071013eff9e608U, 0xe700fcf12230fcf6U,
  0xeaf6fe13f6e3f5f1U, 0x371124e4f83af4ebU, 0x37f705d50de268f3U, 0x3a111d140f32282cU,
  0x332d16b7ef3def26U, 0xc31fb07f71bf70fU, 0x110aea0906ed142cU, 0x2f18e3eb27f42b1cU,
  0x1a12e70722df1f00U, 0x14f2190513db47efU, 0x3a1d1dd9192f37cbU, 0x2b2f0fc102270feaU,
  0x19090be50005fdfaU, 0x17f10cd50de4081bU, 0x12070dbc080ffc08U, 0x341203000cf6f516U,
  0x1af904fdfc2e0b08U, 0x1e121716fb16fe05U, 0xaff17f420f6fd0aU, 0xfdfdf80e1f0cfff2U,
  0xecef10eacd28ff16U, 0x2e081bb8e104f2ffU, 0x2d081be3fffe57fcU, 0x5c082437fc453741U,
  0x322d0efcfa16f519U, 0x271e0c1ae8050733U, 0x1634e710021f043eU, 0x341efbd83b0f1122U,
  0x160ff40d250519feU, 0x33feed26071b43fdU, 0x393c0afd19fe3dccU, 0x1e37090a0ee80d13U,
  0xf1812d5f3f807f0U, 0x8ea07f7ef2ef80dU, 0x25e506d2fdf119fdU, 0x1401fff4fcee1825U,
  0x12e915f20210fc04U, 0x112217f10bdcf50bU, 0xf31124fbf3e6210dU, 0xfa00fefefe0909f0U,
  0x1ee135e4e130f501U, 0x23f61d89d7ea04faU, 0x1d1402ffff0478f9U, 0x4120272c160c3422U,
  0x3c620efcf3de023fU, 0x1de9eac6f304174eU, 0x2620e80e0de0173fU, 0x1b19dbe11e222537U,
  0x17ffeae620043127U, 0x2800f1dff62d50ecU, 0x392c1ff6f61e28d1U, 0x241119fd15fc1bf9U,
  0x90ff9dff50b04fbU, 0x7f3ff19cffd1b01U, 0x11e1eefb09e10ff6U, 0x28ee0414f80ef404U,
  0x201bfe0a13e00402U, 0x20fc14fb01f00104U, 0x4f8f5ffe6fd1106U, 0xf102f7f5061fe4f5U,
  0xeed6f524de470b13U, 0x270332d9e012fdd8U, 0x2cfe18e2031c7ff0U, 0x4e092b2b03022f3cU,
  0x4d0e00edf8fa1828U, 0x21f4f7f810f5ea34U, 0x1206eaf0001b063cU, 0x1b06e3e915da1a33U,
  0xc0af94326eb2616U, 0x390aff1e15d73bd4U, 0x3d1d1eff100943efU, 0x1f060eba090b1bfdU,
  0x81500c61117f6f5U, 0x3315f3e4ded30210U, 0x20051deae5190e0eU, 0x151b08020cd8f114U,
  0x171beb2e1fe50911U, 0xb09082ef711e914U, 0xef8f20ffae9f0eeU, 0xfdff06eef5ef05efU,
  0x11c9fff4e52eec0dU, 0x1f0c2fe9e8e9eb06U, 0x110534dbe70668edU, 0x2d11250cf9d43627U,
  0x2e3a2bcbe5da2c3eU, 0x110af1f9e4ef1b40U, 0x3303e63319061f55U, 0x3406e825311f1428U,
  0xd04f7431106251dU, 0x40ffffe91b0329dbU, 0x48041f0c11ec3df3U, 0x160805e6f3ea2ee8U,
  0xfe10f230fae41cf0U, 0x8f6de07e3ff1613U, 0x1a1003cdfadbf1fcU, 0x23010c00fa15e3fbU,
  0x130aff11fde3fd05U, 0x2af4f939fe16ff01U, 0x700fbfee7deebfdU, 0xe9fb06e9dcfaf9U,
  0xfaebd7cfe4200207U, 0x20f0259ae3fd07edU, 0x171d10cdec3453f3U, 0x48061a39de2a4720U,
  0x2b240cd4f7fe284bU, 0x1ed405f4eb081249U, 0x1cf8fbfe04e21d4fU, 0x2115ddff34f5332eU,
  0x1d12df0625062bdfU, 0x1df818f416eb48f0U, 0x4535290323143ce1U, 0x2a1525fe01e12cf2U,
  0xdbb5f916f20ef505U, 0xf410f1f0eff61217U, 0x14030612e81b0df6U, 0x32211afcefeffc1bU,
  0x18d404f1e43d1af4U, 0xf0613fcfafef70cU, 0xfffaf8e1fdc00d10U, 0xf9f5fb04bbe8f613U,
  0x41f5e3cbe419eefdU, 0x18d5f70fb5edf6f7U, 0x2082fc9e7e259caU, 0x46fc18fcf2ef2de0U,
  0x570affbfd3e91f46U, 0x3704051100e2044bU, 0x22eef400f00f192aU, 0x2ffbe8090b0c0c0cU,
  0xc03fd121ffb07f5U, 0x271d004c260b0ec8U, 0x1f2c073ef81121f9U, 0x25f324ea01c22ae9U,
  0xffdbf1fad9de1108U, 0x1f06e4f7ea050efaU, 0x19050216ee010d12U, 0x190b2604f5fa0300U,
  0x9051307e4f3db07U, 0x7110c16fec2df03U, 0x2060c16ddec0609U, 0xf4d40ded232503f7U,
  0x11d212bee31801ffU, 0xf532eaddfdfafde0U, 0x11e50c10dec536e4U, 0x331226f1effd43f8U,
  0x3fb2f06f5f21043U, 0x400b0aecf1fe1a33U, 0xa4410f5f3f1eb41U, 0x1b1eef18011f0f2fU,
  0x28f0f60df3fa171fU, 0x333ff1fc2f242ce9U, 0x181d1f15161732dbU, 0x2c2727d524e5fde6U,
  0x3e4ea370d190001U, 0x70105f7e11614f1U, 0xf9d91ceef0e30df9U, 0x1a24f4fcf50ae501U,
  0x22e8ede50cd7fcfcU, 0xfce6fbf0f430ea02U, 0x1def8000519f0efU, 0xe8eefbf1f707fcfcU,
  0x2adf08d310e2eb05U, 0x27022d28edc604f0U, 0xfec5fbe3fbbb3bddU, 0x200e092a10d62f20U,
  0x4e7ede7ffee171eU, 0x41260820f706e53cU, 0x130cf0cd1d33ff26U, 0x1ed4ff3a043b081aU,
  0x13f8e3fffe06021bU, 0x12f40eee05071ae3U, 0x28f20414f4e616ffU, 0xfdecfef611be1becU,
  0xeef0d90613130e03U, 0x4dcfd2c11111ff7U, 0x3de02eff5fc040bU, 0x171ff2e7e9f2ece1U,
  0xf1aecf7f910e303U, 0xf920f008fb26d5efU, 0xf5f1f025eaf60d00U, 0xeff7e3deeb02d3edU,
  0xff0711c9c9cbf7f1U, 0x7f9eae512e5f128U, 0x5f1eef507d8e514U, 0xd6fb1be7f203e320U,
  0x17ff1334fcc8eff1U, 0x1d04e6ee07d408dfU, 0xe50ce6ea08f11307U, 0xe109f4e1ecf3e53cU,
  0x9e4dbccfd3309f9U, 0xc6e6f5c8033cf6daU, 0x10e4fef1092c080dU, 0xcbeee0f9c70206U,
  0x12db1ed817ea000eU, 0xfefc0ed8f8260e0bU, 0xff1a241b15ee2ff4U, 0x1eff0a06d3f72eddU,
  0x2eeffbf827d7d81aU, 0xe6062813fbf31621U, 0xc02181a0bfa15e2U, 0xfd00f8fef7f735cbU,
  0xed2decfdebe30925U, 0x900ec12dd251412U, 0xd6fee315efff05e0U, 0xd2e2df50806041dU,
  0x372b06f502f7e711U, 0xf9f715fb1afef80cU, 0xfb113c4111e63114U, 0xf80e1fedcad52e17U,
  0xeee4100722fe18eaU, 0xc8c8dff9e43009daU, 0x17ddd7e604020200U, 0xd807e5de0e1c370dU,
  0x2900da2fe830f5edU, 0x3e7fff0d1d22512U, 0x241a05e900d91502U, 0xfd0ce512ff20ca25U,
  0xf921f110facfd40bU, 0x23232e10d9ebf3e4U, 0x1001ca07d3f02d01U, 0x6fffe02201ede2cU,
  0x13e104f5fb15101fU, 0x1e6c9e10e001509U, 0xf60419d61af1e32bU, 0xf235150b20e82110U,
  0x73afdedefddf419U, 0xf127dd26e0f6f1ddU, 0xfd1afdf31112e023U, 0xdfd01ddd0121df1fU,
  0xf4b82010e93de7ceU, 0x1b32e1ee7ca08faU, 0xf0c63515e4e415e5U, 0x2fdb56f0ef091b15U,
  0x161126f0ede5eafbU, 0xd1819fafff3e30bU, 0x5190c020be3ecf8U, 0x1205ef07e3dbe8fcU,
  0xdc1000e8f02502ebU, 0xfc0108cd1c26fc1aU, 0x808e526ef30ecf8U, 0xfa040700f4de1df1U,
  0x6cf040b1e150501U, 0xafe050322dd0effU, 0xe905f7f116fefdc7U, 0xf51fe833160c021cU,
  0x526e40c1dfb26dfU, 0xd042ee021ff60e22U, 0x221107fe0f01fcd0U, 0x209fdfc251be8edU,
  0x6e426161fed2effU, 0x68c411e0ed4fad6U, 0x2ed6370edff42a0eU, 0x29d03ddbead2dff3U,
  0xfae8210f17e6e20cU, 0xd0f2000be633f805U, 0x313d5cfebd6fe10U, 0x1318e7f7e629102fU,
  0xf301ebd3f1d4f506U, 0x2218faf40f1ae507U, 0xec0ad9f403072d18U, 0xf116fe05f7fc07f2U,
  0xffea140d091208ffU, 0xef08321cfb090a0fU, 0xbb2802fe081338e6U, 0xf532d6f518fb361bU,
  0xed3dd01a481a37d2U, 0x1a02e9dd19ef3039U, 0xd62fdfd115cbda1bU, 0xd1c810e8f3151de6U,
  0xf58623c0fd0de20eU, 0x31b76c1ad6f9e20bU, 0x149e5c12bce6fdfbU, 0x9d34713e0042711U,
  0x23fb1a01e4d5e01eU, 0x2f2eb0f08fffdedU, 0xc0f7f51bf13211f8U, 0xd8ffdf11031bf80cU,
  0xf32ecdf125dd0ae1U, 0xf541bdd2e2dae703U, 0xf627ce17f2ec02e5U, 0x2151c06feeddcfeU,
  0xdd21d00d09fbfc0cU, 0xc1f0bd3100a0200U, 0xc11bd3fc031c21fdU, 0xd848e6e749f23ae1U,
  0xea57aa124be637c3U, 0xe437f81b24292f32U, 0xda0be4e23d14242fU, 0xc1ccf3ed270fdf0eU,
  0xb22df2f6f7f201U, 0x198a3e19e8f4dcfaU, 0x3dc25ee6c7ecf51eU, 0xe1e848dce50c310dU,
  0x1fcf05edc7d20efcU, 0xf4d00c0ee8fa1407U, 0xe8160c07f10705dfU, 0xfcfcd20cfd0231e5U,
  0xf51ccef9e63639c2U, 0xf727c629f23d06f6U, 0xe629e8e8d514e2e6U, 0xe50cf8fbe5d110cfU,
  0xfc3de528ed0c0c05U, 0x9f404fb002ffcdbU, 0xa801d4e4372f53dbU, 0x9543a9f44e155106U,
  0xe537d5cd3ce558dfU, 0x21ebee35ff07d7U, 0xabfbf80e02ec17e5U, 0xd7efef231bfee606U,
  0x7990af7fdf2e5e8U, 0x33a554f8d1f3c2e9U, 0x2e955413ead9e60eU, 0x5c91f10c1eb0fe3U,
  0x10e91005ad0e0707U, 0xd9da05ffe1db0805U, 0x1d140101050a1efaU, 0xe7fee11317f725e4U,
  0x8fad002e90116daU, 0xe534eaca1d32fee0U, 0xe81be5e31d341bcdU, 0xea0af22305dc0cd9U,
  0x24fe0ed7eaeef008U, 0xdd25322225e90fefU, 0xcf49da1f310e48f8U, 0xaf589a1344e04dffU,
  0xd546b303343352feU, 0xdd1adddf3a100ffbU, 0xe2f4f80019f816dfU, 0xb0ebf9e92bc6eb1cU,
  0xf88f2b081feef71cU, 0x43864103eb0df0e8U, 0x31b877efc1040af7U, 0x1e93306d7111b09U,
  0xe9df0804e3131707U, 0x10f8f322cefb2b07U, 0xd5cfd7f1d8221ce8U, 0xe40aaa0a012c1f03U,
  0x1411e2d0f90117c7U, 0xee1adb1df4e825e6U, 0xfb2de00707c8f2beU, 0xf01d02011ffa2cc7U,
  0xfa17ccfaf7160bf4U, 0xc81efdd82600160dU, 0xb248cfea30e52be9U, 0xa428a3e64d1d4df9U,
  0xb34cd9d6240938fdU, 0xf434f806242025e3U, 0xb308f5fc3e0fee0eU, 0xa1ccfdfd1a1a0529U,
  0xf4c20e00f60bf41eU, 0x208f5cf0ade108e0U, 0x1a8466e6b41c1aedU, 0xf2ff3ee7e807280cU,
  0x26e819f7defa21f9U, 0x32e2ede6d0ff20ecU, 0x12ed1df3ff34f7U, 0xd1dd70802192cc6U,
  0x100abd290a1547e7U, 0xfb1fe500fcd821b9U, 0xfb1aeaf1f1102db1U, 0xec100fffeffef9f3U,
  0xe7102f01f8f603f5U, 0x1030221d08f810ffU, 0x9d30d5ed3b0e3fdfU, 0xa5319be038064f0dU,
  0xc260bb4752284700U, 0xc52eec032c342cf1U, 0xb2ecff192e04c709U, 0xabcbdfdd27d9bd29U,
  0xd9b21e21b15b03aU, 0x47ab3e0ab1ddeedbU, 0x17a4721d9d1a2609U, 0x2c443e6c206430eU,
  0xf9cd01fdd823250bU, 0xf4fc03fbd1ea42fdU, 0xe2f8d036f30c1ecaU, 0xd5fac621eff24adfU,
  0x19ffd71ad2d61bc8U, 0x92b0401ee04249bU, 0xee05f2e102d30fbaU, 0xfa16042306eee2dfU,
  0x1a23132f0922ebecU, 0xe7f417f12fe1110aU, 0x8121db1729262befU, 0x8748a0f948bf4bcbU,
  0xd84be31a2e063f05U, 0xcd31f32f3cf7161bU, 0xb90c0ff81f18042bU, 0xafaef1011831dc22U,
  0xd950bf321dead23U, 0x3d8f4523e70eeff5U, 0x16aa5de6c1fb2009U, 0xfa972219b9eb2230U,
  0x33dc000de4ca3c26U, 0x16e10cf8cf2228fbU, 0xe1f6dbe2f2e131e9U, 0xf4e5d806ddca2fbcU,
  0xcf01e328d2132daeU, 0x1fcf422ddf340adU, 0xeb12eef6e62c27c2U, 0xfd20190be9d1fcf9U,
  0xedea27f207e6fcfdU, 0xdff5ec0f39082517U, 0xaa39e1042d1733e8U, 0x8b4d881e64e942ecU,
  0xc973cb4944e8450eU, 0xe032f9091fcc3e1eU, 0x9e0b06df16def52eU, 0x96b0d7eb24f0bf27U,
  0x119e12d90cf1d340U, 0x328255fd9cda21d9U, 0x10b95614d3c80bfcU, 0xefbe3cffc8113d0fU,
  0x12c619f6d9110a14U, 0xf0db1116d8bf4a09U, 0xe7f9d519e82932f7U, 0x315c523e7f95cd1U,
  0x1318fd15e70c5acdU, 0xfd07f80302e24c82U, 0xf31c02d7f7f606d7U, 0xe9260e0cddc903f7U,
  0xf1ccf9fb1412ee0aU, 0xd80a1f2f24071d20U, 0xba28d0204ef732dbU, 0x9d5b9dda4bc83c1aU,
  0xb95bb7eb3f286829U, 0xe329e0fe2bf54334U, 0xbf11050b2d0fd824U, 0x8fcaf910060bb33dU,
  0x10a509150cedb12dU, 0x37913adccdede2d8U, 0x2e9155fdce0715fcU, 0xf7bc36ebc3c60816U,
  0xe7de0911d90d4b03U, 0xd615fbccf657fcU, 0xd409d3e7ffe44b09U, 0x817b93dedf13cd3U,
  0xed0af429d3ef45a8U, 0xdc0c1218f0e8508bU, 0xe809da0dfaf5f1d8U, 0x9220613e0ef16d6U,
  0x11eb36fc0cfeee15U, 0xc50d03fd13ea1910U, 0x9928e2064bfb3615U, 0x9e44972361e351e4U,
  0xca56b90151ff31f8U, 0xef21e6f824d93808U, 0xaa30faf80efae537U, 0x8d9eebcf3a22c150U,
  0xb9511011100a12fU, 0x358741f2e337f3d8U, 0x20af5ae6c7dbf1f6U, 0xe7ea460bd8342a14U,
  0x6e31b07d8fd3f23U, 0x3ed0ecfd6213809U, 0xe909e126f8f948ebU, 0xe607dd12031555e2U,
  0xee15e8f9d61f5fbfU, 0xfcf8f6fde3004aa5U, 0xd310f608c80e02ceU, 0x31bff17e2d00dd0U,
  0xd9ffe7ef1cd1ea08U, 0xe2e512fb2d0624fdU, 0x9a2cc409410b47daU, 0x985b8e494efd43f2U,
  0x659bd2345e34713U, 0xd443fe053033003bU, 0xb60efde308e6e63eU, 0xa9d5daf60107a453U,
  0xd87004013cdb03dU, 0x429637f9ed16e7f5U, 0xbce581aa6f738e8U, 0x9c125eec1ee321aU,
  0xe5be1aebe7364510U, 0x12d5f9f3e019290dU, 0xfdffe8efe4eb53e7U, 0x22ed410ee1d61f1U,
  0x2f2eb38f3ee49beU, 0xf8fd00f9b0cc4f8aU, 0xea1ff5ecead618c9U, 0x120f91eadcd0ee6U,
  0x1a2bfd2a0c2ffae8U, 0xd6fe023025120502U, 0xaf39e11647213dd6U, 0x844898094ddd3ed3U,
  0xcc59c6224bde4b1eU, 0x33f82427f11125U, 0xcf25f00108f5df3aU, 0x90d4de13fa1aac53U,
  0xeab1f3150b07912dU, 0x3eac3221eccc14f0U, 0x35dd570bac010208U, 0xf6cc45e4b5e943e9U,
  0x3db160bcef93813U, 0xf8e104e9f62842ffU, 0xfefcf2ecdad12d15U, 0xf9f8cbedfe182ef3U,
  0xeb18e90de9d943c6U, 0xf30dffe7e2ec2d9aU, 0xf407fddfd0c902c0U, 0x26071febe013ebU,
  0x39e5e9e63318dff8U, 0xffedec1b1f0e1613U, 0xad24dd4152093bbdU, 0x8c64c0d949c64516U,
  0xea34cce835e447ecU, 0xf74ae80b1de21d4aU, 0xcfe9f6202715e262U, 0xaac9dffb0739c654U,
  0xef94f20fec27b741U, 0x37973ae9c52d0debU, 0x2db547e0c3ef15e8U, 0x19ce4307d3d62602U,
  0xf1c7f4fe00ea3c26U, 0xebde17d8e6c23c10U, 0x5ecf7c9fce43df5U, 0xf926d33afcd83df6U,
  0xe3040428d1085abfU, 0xc120ddaaef24399U, 0xfe0012c5f7beeed2U, 0x71a192ed6c61de7U,
  0x3df2405e5f8f20eU, 0xd4031f372b100903U, 0xb327e32a35ea3ee0U, 0xe82abce952e64e01U,
  0xfc54d30735e13f25U, 0x23d0b0c18ed2b10U, 0xa31103fe062dd948U, 0xb8c2d0d927f4af4dU,
  0xe9b8eb1af9289846U, 0x4ab720e8efd70cdbU, 0x2eb54ee7e20214e6U, 0xfad24ddfd9fb3919U,
  0xfbd80bf6ebf93409U, 0x1f60afaee0734fdU, 0xe500f3e3d8f64d11U, 0xd508d514ea1554f2U,
  0x1205f314e4fa39d2U, 0xd8091a16c7fc36acU, 0xe91617eccae614ccU, 0x62b1219a4d92fcaU,
  0xfaee152c08f4f1e8U, 0x601dbeb0bfd0aeaU, 0xc44edd3729fe63f0U, 0xb25bb81b5aea4ed5U,
  0xdc55cf2a21cc2d0fU, 0xeb1b191714e91f03U, 0xd638eb300320e266U, 0xb6c2d334fae0b95fU,
  0xe1cbcb2cf6f38e54U, 0x18b715ecc318e5cdU, 0x21cb51e7b6ebfbe5U, 0xf8a248f8d9e13cf4U,
  0xffdb1bebc5f72703U, 0xf620fae3dde348f2U, 0xd312fe01ebfd48f2U, 0xf608d80fc6e13eeaU,
  0xf6f8f91fdfea2bc4U, 0xe72318f3dbd34cacU, 0xe6f403c7d000f6d0U, 0x8301211c4c6f1cfU,
  0xeb34c51c11e2fafdU, 0xf6e7e10316f9f9e6U, 0xb839e53949d849d5U, 0x824ed83337fa4d1aU,
  0xc656d30c3bdd5623U, 0x1f2cfe3c1bf7f528U, 0xc3f90624e9e3f353U, 0xb6becc2b10f7a95eU,
  0xf0e2e74f011b9536U, 0x4cdf0bf9daf7ddb2U, 0x2ad466d6d2e8f4c9U, 0x9bb42fb02fb24f1U,
  0xdedc2c06dbe81d09U, 0x12e7ff09cb122c07U, 0x22f1dbdbfcb74a0dU, 0x1415dbfeec0b4bebU,
  0xfb3305e3ea0450e1U, 0xe40b18e6ea0841b9U, 0xfa0a04f2cbf0f9c1U, 0x92b1ffecfb8fce5U,
  0xc40035de1ddaf1f7U, 0x2f3e21b1bd4f10eU, 0xba2d1827361e51d2U, 0x8d68bd2938d64ad8U,
  0xca24ce101b0b511cU, 0x82af4171aed2249U, 0xc853f10d0aecf55fU, 0xb5ebd3e6192fc843U,
  0xe9d1ce4404eeca3aU, 0x1cbc00e1f5de06daU, 0x36c03ce3d30a1cc7U, 0xf6112fb8e10206e9U,
  0xee7240b0d1143f4U, 0xa1a1e14dcdd3cf9U, 0xfd03e3ebf3f23a08U, 0xee0dced8d2d12bf9U,
  0x6f4fd0ce51a47d5U, 0xf1030500d51758a4U, 0xf20411dec9cf0cb8U, 0x1526141db0e403c4U,
  0xe813d00ff7d7f2f0U, 0xdbfd0720110406ecU, 0xef44d9242a0e65adU, 0xd733be1d32f050eaU,
  0xbb48ce2b13f23d13U, 0x132b0ce9fb11142eU, 0xce3fdfd10823fd52U, 0xab09b02eff02c063U,
  0xe5eda82606cec34dU, 0x15dcf0e7f610c8cfU, 0xfee26209e22cc4d3U, 0xedda39e8dfd903e5U,
  0xeceb4011e9ee1fe8U, 0x3f402e90ceb250cU, 0xda09da27f31c39e7U, 0xfc10d704df2157f1U,
  0x101304ebd6f34fc5U, 0xfe1f0704d8fe3cb1U, 0xf3f9f5cac3c60fc0U, 0x71e181eede81ad9U,
  0x1fffe42722ceecf8U, 0xe9d21af811d7fae8U, 0xb2f8d7f1fe0e46ebU, 0xb31ebafd33053aefU,
  0xf816dbfa14c93d23U, 0x3964f5f204d82c58U, 0xed03ea1df1ddfd5cU, 0xa707c50c0509df5dU,
  0xc3dcb316e4069333U, 0x28d7fa1c0ce90abbU, 0x1c1545daf8e8f0bbU, 0xdfdc231204fd12efU,
  0x12de2001e8e342fdU, 0x2f1036f0020837efU, 0xe80ee425e9333f1eU, 0xd5fff232f2275001U,
  0xffd0eeae8ec31ecU, 0xecf31c01e30651c3U, 0xea07f7f5eef418d2U, 0xff1d1fe6f1dcc3f1U,
  0x2e21e21f917f5b7U, 0xe0bd30419f2e5e5U, 0xfa24d9f231dc2d05U, 0x1b1cb42a4df53d17U,
  0xe31f03251d321de7U, 0x37460803de124419U, 0xf2f3de02e6d8f457U, 0xe402db0a0e0ccf58U,
  0x3e6cf221619ca33U, 0x2a19fd38041a0ee0U, 0x203250206070be9U, 0xf40620ffffe1e6f1U,
  0xdf0311f30b1d21U, 0x200d02ed0a093cf7U, 0xdfe7e0f0f63810U, 0x2214eddad3172ce6U,
  0x4208deebf81124f1U, 0x2d25280ddfd12cb2U, 0xf9f8180ce9070ed3U, 0x2422deb12061effU,
  0x728eecafe0ee40eU, 0xec23ffedf813e3f4U, 0xfaf1d93317e315caU, 0xf70ae62417d60bd1U,
  0xd916eb1e17411f18U, 0x1fbffe7e1d51dfcU, 0xe0af106e8e3fa32U, 0xcd18d502e103bb69U,
  0xe8cfcb0beb2cd143U, 0xbf2f8f5f316e9f4U, 0xf702edfe0fc8f0caU, 0xf1edd50cf6bf0ae3U,
  0xfeddf8fae3030f07U, 0x9fbdbd9f1d14628U, 0x161eeb290e0c1f2eU, 0xf620ced119ef2fd9U,
  0x372ee30f1b083cf5U, 0x1a0824e8240e28b0U, 0xf91f2c032c191adcU, 0xff840c522e902e0U,
  0x17e713ff11df01eaU, 0xe9f2e00ff3ddfd01U, 0x1e0df30319220e02U, 0xa15131c1ee8d7f3U,
  0x201beee3cce401e8U, 0xc12ef29fe0df4e0U, 0x21fdf40b1010eeU, 0xdcf539fbdafde9f4U,
  0x1712eb2cd0151fc0U, 0xea04d712f5f0fbd7U, 0x16f420051afeece5U, 0xf005def9f2dd2424U,
  0x1c1ff61df904d820U, 0xd6311cfd100ffb06U, 0xee20e3f8f10bf700U, 0xe2fdffd207c429e1U,
  0xce13fef4082f1400U, 0xfff1e8eff211e9e8U, 0xe1fde40dfb230f1aU, 0xe60012fff0d3f7d7U,
  0xbf303dc34f813ffU, 0x1213330f0cd5cdf4U, 0x211cff0d23f61325U, 0x1a3f1a3321de24e0U,
  0xe92414f4f130280cU, 0x222cfcdd0f2030faU, 0x2a01fff40ff00becU, 0xc1318ed22fe200cU,
  0xe10802f4dbe9cdd5U, 0x2cf225f2f81d18e1U, 0xdaebec0a000405dfU, 0xf5fe25fd0409fdd7U,
  0xf90829002a01f312U, 0x1c14ec13ee00d9fbU, 0x14020e30e2dde90bU, 0xbe13113cd3118feU,
  0xf306ff11090e13feU, 0x1adb0624ed21d1fbU, 0x102dcfcf3f6320dU, 0xc0101070ce2e1ecU,
  0xefeb30ece7fe0f0bU, 0xfce0fe1609f90308U, 0x1f2f0b10071aedcfU, 0xe2beef7f71bc716U,
  0xfa42d5f7d224f93eU, 0x1251ded9fd0f29d7U, 0x1e220afd18f6c801U, 0x110cfcf4fff31422U,
  0x12ff16240ec705d7U, 0xf0dc06e6f2f2150cU, 0xe8e2ea02e400f81dU, 0x13f61de622d2ebd9U,
  0xef3cf81803f5e7eaU, 0xea430315fb19d4e8U, 0x201adf20d3f60edeU, 0xfafc04d607d617e4U,
  0x21f32114e438071cU, 0xf2ebf7f1e822d72fU, 0x3041201e1d214e1U, 0xf70206fd1de7cd15U,
  0xe200cbd604fe0be8U, 0x2e35270f0511270fU, 0x529fb020df00c16U, 0x382e07f2fa3e00e9U,
  0x2049e4f4fe0b1c36U, 0x2641d430f50e3611U, 0x4b3535f3d33513fbU, 0x2f143dff06df04e9U,
  0x2ddd320bce20dc0cU, 0x14dc14ffe8e80b01U, 0x21010ffbfe1217d9U, 0x6ea082d08070be4U,
  0xd920f6040bf7f62fU, 0xde59eef00515dd00U, 0xf01ae52ef410ede5U, 0xf010f5ecbdf81631U,
  0xfe02f5f8eb1bf9d9U, 0xf6e915f815ca04feU, 0xf0ef040c02fe18eaU, 0xfa1705ffdf2712fcU,
  0xf519eec6fae20bf5U, 0x1d0602faeb0d31d4U, 0xfd4decebdfdd2221U, 0x12420127e909d6e4U,
  0x1e61cd16f6f4fce4U, 0x233511d4c61bd4f2U, 0x612124f3e7fff7c2U, 0x51053feaddfafd18U,
  0x25d51efec7c420dbU, 0x18f22afbe7def0d7U, 0xccefd24ee0fee01U, 0xf9e80de6030ef3edU,
  0xf22be4e8e8260ae6U, 0xfb2fe00e0f1b1ed0U, 0xe11bdde2fcfa1f0cU, 0x6f7fe080221f8fdU,
  0x2f12a0aecec15U, 0x2c0df918df1c1723U, 0xf8e8051705dbdc1cU, 0xf1014f7eb2be1e5U,
  0xe4e5f5d4eed205f5U, 0x290e2c1edfda35e3U, 0xf74fb627def516e5U, 0x5dfeea21f4e20aU,
  0x47901fef3d9f5ecU, 0x504f13fedbd10808U, 0x592f37f3dae30df9U, 0x5a05370cb81c0210U,
  0x22fd39f9e4dddb26U, 0x3fb0a06f4f1f2feU, 0x7f0e6f4d5090015U, 0xd0e5f3d6dff5eaebU,
  0xfd24e902ece22de4U, 0xf73fdef8f71835efU, 0xf62bd4fb0b031027U, 0xf0edf2ffe136fbf9U,
  0xfbf104dff9daf2f9U, 0xe2e3161ae2eef8f4U, 0xf0ebf326d8f5050eU, 0x707faefd12cfbfaU,
  0xf60cd0e3e81115edU, 0x250bf6f8cc004dacU, 0xb43a60501f312e0U, 0xff4cefcef7ee20eeU,
  0x1973ffc2d6cfd20fU, 0x5c400cfae63fe7ceU, 0x663f47e7b90dcbf1U, 0x600447fed831ecf2U,
  0x3be035dbb6e0f7f8U, 0x35ea2c04de09cc2aU, 0xf7db0423e72a05fcU, 0xf4efe6e3f4d3f9dfU,
  0xed41d1f1e72201e9U, 0xcb4eb6dd1222070dU, 0xcc26d8e9eaeffeedU, 0xf9fef2e5f4fe0a15U,
  0xf800ef0213d730ffU, 0x107081de613fee7U, 0xfae0f925f2c8ebefU, 0xf9feef05e2e3faf5U,
  0xfe140d11e7d509f0U, 0xf6e8fd2bef063ccbU, 0x123fb938f01a1ff2U, 0xc5ff2e7feeef7cdU,
  0xf55509ced8df08e3U, 0x464002c7e7faf3e1U, 0x771942eab60802f2U, 0x5b2859dcbe200ef6U,
  0x3de34929d10bf416U, 0x22e714d3e7f40e10U, 0x18e400fbe007e318U, 0xf4eff0e9e50f07f9U,
  0xc42ee3eafe1409f4U, 0xc957c91805ec0df2U, 0xc61ded1b080815f6U, 0xe6fae127e8d31727U,
  0x8eef205ce17f6eaU, 0xdfef318d6060f17U, 0xfce2f4d3feeee6f1U, 0xf805f3ecf1c1ece0U,
  0xdcf9deebe5d423dfU, 0xe809012eeed047b9U, 0xed42811310e50ff5U, 0x2453f2eff91f01eaU,
  0xa6f04d0d0f81e05U, 0x434b08c9d61902e1U, 0x71313fe2bb261909U, 0x7d0f47e09bf7181fU,
  0x43fa3a1fe70a0320U, 0x10d0410acedee813U, 0xffc102f4e5d0fe25U, 0xfaf5dde30be004U,
  0xd92ee02cf4e9f2f6U, 0xe042b63df7fce7dfU, 0xd71fd63c19fc20e9U, 0xd7fdda09ff0a17f7U,
  0xf1f0f31be01d04f4U, 0xfc0ec8f808222c13U, 0xf6faeee4f22000f7U, 0xf7f4f7f110f3df04U,
  0xf3ea22e2fa2e2be2U, 0xf702cb0dff1343bdU, 0x33a900206e42411U, 0x1c4508c9e505f1d0U,
  0x146b0e16e7fef2eeU, 0x4555fbd4dc15150eU, 0x60212dd2de32d501U, 0x6f0037fbbe010ffdU,
  0x51e75c13c2ebcc22U, 0x2ad72e34e5e1f814U, 0xcc919cdea18cb12U, 0xd8cff71be4f8020eU,
  0xdb47ee04e9cef5feU, 0xcd78ca0220fa0f03U, 0xaf26e4f6ef041a03U, 0xdfffe02ff1211901U,
  0xe403f725e00610f2U, 0xe320fb39c4370d16U, 0xf2e7e819e8dcd8f5U, 0xcf0fc08f0e913f0U,
  0xd10f8f4db100dd2U, 0xa09f82ef10c41bcU, 0x739a227f90213eeU, 0x1953fcdde8f1e3dfU,
  0xfd580ce0d4edfaecU, 0x5a38e603e70c0516U, 0x6a143cf4c32d1515U, 0x5f094fdaa4171802U,
  0x4ee651f4bd04fcffU, 0x26d234e5edf80528U, 0xeec408e3f0e2f012U, 0xf101f722f71d090bU,
  0xe14de9f909ffe4f9U, 0xb342d4e3000b1cf9U, 0xcd2ae11fe602fb04U, 0xe1fe080ce1310803U,
  0xe4fce7e8f914f1edU, 0xef0fe916c5172105U, 0xedf2e8e70a2ff50eU, 0xf7f80be704eb0106U,
  0xc81f03ffe50924d5U, 0xd014ebeefb2d52bbU, 0x14c9b1dfff51de8U, 0x1758fedefbdb00adU,
  0x2580cc8dc0cfedaU, 0x4335f40ac6e30c11U, 0x652c4809c8041501U, 0x52fe3ec3b000f216U,
  0x4cd260cdb6f7de21U, 0xed93cfcee120418U, 0xed31107d407f119U, 0x1d415d1e9fff005U,
  0x637fd140ee9f2f0U, 0xaf45ca3a0304f1e9U, 0xdd2cd70016e2f512U, 0xd8fdf6fee40418fbU,
  0xdbfef722de111c04U, 0x30c0af5d3e90508U, 0x3ebf7f7f3e8f00cU, 0xf5fcf0f2f2f71cfcU,
  0x1ff3fe1fe80722f1U, 0xf019d8fde30939b6U, 0xe2e8311f3d70414U, 0x1e5005f3ee09f1d7U,
  0x56fe14c31717f4U, 0x383ee61ed52eef1aU, 0x5e2e3102cc3a0dfeU, 0x63f84b0dca2a09f7U,
  0x3ae954c8b6f9fa14U, 0x1fd53fd2e811f926U, 0x24c50de7ffd0e225U, 0x7dd0318e5ebd4f9U,
  0xfe4210f0faedf2edU, 0xe260da320e0e19dbU, 0xd12e031907e90cecU, 0xdce8f42cd8e2fef8U,
  0xfe020a11d5310b08U, 0xe11bec23ebd72b0dU, 0xeef5e000fffdf718U, 0xfcf7f7f6dffa290bU,
  0x32b11d4eee21beaU, 0xf20ed037f7083ca9U, 0x11309608040722fdU, 0x2253ef05f708edc4U,
  0xff48fbeaf11dfdd7U, 0x2e2ef2e3c4fa010dU, 0x6a3029f2ca0f0c13U, 0x640743e9a70ae4f3U,
  0x4adc53f0b20c14f5U, 0x1ed748dfecf5f41cU, 0xf7c818d3e4d0db16U, 0xf9f0fedc0e12e6f2U,
  0xf843031efa2609efU, 0xb648ccec0cfbf8dbU, 0xcb1d03e7ffeeede9U, 0xea03ef11e91907f0U,
  0xeb10f1d602210ef7U, 0xf9fee840ba0c1d15U, 0xe3f6021f0a1ae905U, 0x1f9ea01e9c2ec00U,
  0x20cbfe30dcfc12c4U, 0xe80be0eff7f540acU, 0xf33d9010e3fd1cf5U, 0x214f0403ddfef2ecU,
  0xa4e0be7c7d006dbU, 0x2c36f1ffcb1fe61bU, 0x552b25e2c41406fcU, 0x551347edb3fa11fbU,
  0x4cf64eded2ce0803U, 0x27e45cfcddf9f606U, 0xebe933d6e9e7f524U, 0xe6e8fdfc1ed307U,
  0xf03c0b1e0301f8f9U, 0xbf43c11421fff5d0U, 0xe727f4fc00daf8f7U, 0xcbfafdeaf5080ef7U,
  0xf6f3ef26e4fcfffdU, 0xf5f7f303edeb0dffU, 0xfbeff827de080302U, 0xfbe9eaedf4c6f001U,
  0xf1f0c9f8d9ea1dd4U, 0xb231ee20f73833aeU, 0xa4387fdef420af9U, 0x1a4eeb0ce02912d8U,
  0xb401bdec6d605d1U, 0x2e2af913cfdddd1eU, 0x503a1efddfd2f50bU, 0x59113bc59f07faf8U,
  0x43d944e1a609e1faU, 0x28dd4707cfd218faU, 0xec72bdcffdbeb1dU, 0xe60703e8f2daf119U,
  0xf142e223fbfe06deU, 0xc240d40c13f4fde0U, 0xe320f5fafecbdff3U, 0xd7f40412ebf0f107U,
  0xeae6101eec000700U, 0xe424ef0f00e91910U, 0xff0806efe9f3f809U, 0xf0efe8f90ce10308U,
  0x26ff28ffde1105d4U, 0xcaef00f302e5299eU, 0x14258bf4ec0d2602U, 0x2f330ff4e213eebeU,
  0x154f2135df00f4ecU, 0x1739e50dd6f2002aU, 0x4b1b24b4c1090f0eU, 0x53f140c7a0f301f8U,
  0x39d93de6ba0c09f9U, 0x2cdb5d06dc1ffb1cU, 0x8fb25fa05d3ed09U, 0xe912f9fef923cf06U,
  0xf740e5150327e8dfU, 0xc71cee033c10e6ecU, 0xdd27f227f406e7dfU, 0xf1f2fb1a08cd0a00U,
  0xd7d6edfff819010dU, 0xff0deee7f0031d0fU, 0xe72211c6ebfa13U, 0x6f6070eead80006U,
  0xffff0231c91f12dfU, 0xcd2419e4f9ff34bbU, 0x14f99370910fb14U, 0x393401fdefe5f2efU,
  0x62d19eddf1510feU, 0x20060af7cef1d20cU, 0x4b3829eecef8eaf5U, 0x5b045eb2a2fbf409U,
  0x34e559fbbd270100U, 0x32f535fef2e40a05U, 0x60914320a19e3f9U, 0xe3e209ccf706b723U,
  0xf114ff2bf5fe01fbU, 0xbc3f000f1e10ffd0U, 0xe1fbe6e413ccede4U, 0xec050200ee0e0609U,
  0xecf104d7d3fffa08U, 0x504ec27e4f61510U, 0xfbfc09f3f7f20818U, 0x8f2f1ffe5d8fcfdU,
  0xf60c3b1bd4f317c9U, 0xc404bc03f5d12cbaU, 0xee2b96f7faf31e16U, 0x292e0f31f422ebfdU,
  0xb311932ced610f3U, 0x1d0fea12c60ff523U, 0x491a15f1d42cef0dU, 0x4e0439f3a2e21110U,
  0x2ed141facf32f710U, 0x32f1390ae60d13f6U, 0xf6da1bd4e8e3f516U, 0xfaf9ffea1a25f614U,
  0xe71ddd1bfc0103ddU, 0xca1ef6040b01e3c7U, 0xdc12fbf7080f01e1U, 0x81310081ac400f4U,
  0xf5fdf10bdc26020fU, 0xf0ecf30df1190819U, 0xfb02092bf51ae80eU, 0xfcf202fbe0cc20f7U,
  0x14f11907e6f617d5U, 0xbd02df03e61e2da8U, 0xf3f9ab1f1d10241eU, 0x2b371a0ed106fe1bU,
  0x221007dfedc0f8f6U, 0x1bfbe5d8f010f62bU, 0x432926e2c80bf21cU, 0x3cec43ce97feeb19U,
  0x1fe451d1cbfd00eeU, 0x2af334dbdc31e703U, 0x62322c811e3ec12U, 0xff06fc180bf2d908U,
  0xf527fce70217f0eeU, 0xe119df170c1fdfe7U, 0xeff903f9022df0eaU, 0xf1ee19e8fceff300U,
  0xeff8de0009e41205U, 0xee19023b0135010fU, 0xfcede900e6142000U, 0xfb05f9cb0204feU,
  0xf0005e7f1030cb8U, 0xd82aeee501dc17caU, 0xe2f2b9edf9163e33U, 0x8240805fae9f6faU,
  0x81024c7daf6f3dcU, 0x19e9f5d6c806e715U, 0x631d16dee442f823U, 0x5b0945dfd3d2f4e6U,
  0x28014eb9daec0cfdU, 0x24f637dfe3ef030fU, 0x17f5fa00f80ef50fU, 0xf3150f280fd0d70dU,
  0xe520f73afbf4f0dfU, 0xdc24f21b1e1eebdbU, 0xdd150ce4efe3e7e2U, 0xf4120dc1f6e4e5fcU,
  0xecfcef0300e0fa16U, 0xf629e20ada00f712U, 0xf7ed0707200bc70aU, 0x9ef0411e406dbfcU,
  0xf126f4dbefc220c4U, 0xc904d80edee61ac8U, 0xd127c4071af31800U, 0x190d0d29e63cefeeU,
  0x101e10d3dd0afd1aU, 0x1800f8ebdeebea17U, 0x460e2200d505ef2dU, 0x52ee45dee5e0f101U,
  0x32df3a0fd4dee6d1U, 0x1fe1442be901fc0aU, 0xfb0122211ffedf04U, 0xe9e6ecf50301da0eU,
  0xf41afde313fce1ecU, 0xd5ffeb0e1b02f1eeU, 0xb041a0602f500d6U, 0xd0e0f33eb33120bU,
  0xf725ef32f3dc0709U, 0x1516fa0c0efcea1aU, 0x11f7f2340bfcf621U, 0xf9e6e40dcb1adb16U,
  0xdfbf0ebfcfc05c2U, 0xb6e2e30202111ac6U, 0xe2e6c1100f0d2d06U, 0xfcd4fbc7d3f2fcefU,
  0xfe3706f9caf70f14U, 0xf0df5efdcd5f21fU, 0x35f7141ae2d1fd20U, 0x360e3be4e4fbeefdU,
  0x11f13e03ffeb0bfbU, 0xe0820d5fdfdf2feU, 0x16f7f5fcf5fff802U, 0xee1819f8f3c1e507U,
  0x3e9fd030af8d1f5U, 0xe42ae0e00a2af9d1U, 0xf2ecfc0e0fc8f8eeU, 0xea321cd5e1d9e809U,
  0xe1e412dbd8e7eb13U, 0xec1e13e6fd020911U, 0xd04062a1c000117U, 0xf7e8ed140004f103U,
  0xe5ca291e00e91abbU, 0xd3e9fad5050811e6U, 0xdee5b8f108d40307U, 0x18f4021df6e9010dU,
  0xee10cf3e20af005U, 0x19200f2bbfd10e3bU, 0x1b061ee7dff4f62cU, 0x2f2939d2eb17df10U,
  0xf0337f7db2bf101U, 0xfbe60c100a0dfd05U, 0xf509fd2a02eaf1eaU, 0xfe60ecf12f9d21cU,
  0xf627fbff2c13eaeeU, 0xed02f106f5e1dfdfU, 0xdef9fa080f1bf8e5U, 0x61c0404f8cde908U,
  0x214fee827e41305U, 0x4fbfb0d0325e910U, 0xff1eff25f71bdefdU, 0xecfaf3ebf903cdfeU,
  0xf6001ff121eb0ab4U, 0xcdefe113250a0ac0U, 0xccd6c4043b062301U, 0x5ea251011f20afbU,
  0x26f71cdd0aff1d11U, 0x1f090407051c2816U, 0x2417292d05dfda4eU, 0x18163deeed0bf6e5U,
  0xedf024e5dfe40220U, 0xcbfb06ff0223ef01U, 0xdb13d7f308fbf4f7U, 0xf82df100f6d5cdecU,
  0xfcc5eded0108f5fbU, 0xfbf2ffdd05d718c4U, 0xeeeef907f7ca06ffU, 0xf4f7f725eed908e0U,
  0xbe8f806ff07ecf8U, 0xffd61d35e2fdef02U, 0xf001f4dce5fd002dU, 0xf81df0dee129edf8U,
  0xec04da14dd190cd9U, 0xae62613232ff8f3U, 0xfc10df002a28ff21U, 0xe0132500fdd50c27U,
  0x181be333160dc90aU, 0xf0050be6132808eeU, 0xfe1315e229e3ecf8U, 0xf00c06153122d208U,
  0x922da144039fa08U, 0x242f0941e9121400U, 0x1a12edf0fe2408deU, 0x231103ee0a11c513U,
  0xe01d23f1fce726f6U, 0xdf1b1029f300221aU, 0xec1ddb12f9d3e81eU, 0x1bfe1e200f1804eaU,
  0xc30d2ffd0bedc1e3U, 0xc0cd60aed26e924U, 0xebf315d311f324d8U, 0xeafbfdfb0b0d0c0fU,
  0xf82ff1dc24ce14f7U, 0xd7fc0811fed30bf8U, 0xe20523050000270eU, 0x1efd06100a02c227U,
  0xff306dbdc34f50eU, 0xc9f9d9e22af6040bU, 0x230dec1e0024fff7U, 0x270113f10045f417U,
  0xd128221adc220225U, 0xe116ec1e090bedf5U, 0xee1b07f80d09fa05U, 0xe8f6011d0cedd320U,
  0x72501f700d507f4U, 0xfbfc24fef2310623U, 0x37081528d91acaf1U, 0x26f611022ee41c0cU,
  0x13feffef231ece1dU, 0x11e320b0015170aU, 0x1305f8d5f6ec1ce1U, 0xfcfdf3ffeaee1d14U,
  0x12fc06f728e20116U, 0xf5d3ef313e331b0dU, 0x16fd17fbfb1be3ecU, 0x4ee401c1dd0efeaU,
  0x12e451270218f4fdU, 0xebcd39e012de03f2U, 0xe8e002d649201815U, 0xf9fa1afd1b1b1b1eU,
  0xec0a251500fc221eU, 0xfe0ceffd07f12c2eU, 0x5e80f06e215f602U, 0xf61a12dd310a06fdU,
  0xf80c200202ebf303U, 0x19eef011f212fb0bU, 0xef13e808f20fe9U, 0xefa091514cef202U,
  0x211a15ee2326f8edU, 0xdc0b0c1be33de810U, 0xa05f7f4ec0b332aU, 0xfdfb0bece8f313f8U,
  0xd130ed41f1bf705U, 0x15fd38fa32e3222bU, 0xd6f11cd913fcf022U, 0xbd22ce319de2827U,
  0xd8e628010803ebf8U, 0x1e630f8093224d5U, 0xd9e81fe13015ef1bU, 0xf9d71505052f0126U,
  0xf50d2d0026ea120cU, 0xdff62aea2313f517U, 0x60dd541e80e070dU, 0xecfbec020417e226U,
  0xe70715e4d431f0U, 0xaf30d0e0f0a31f3U, 0xf3e40f1415f93430U, 0xfff707d8fc2811d9U,
  0xfec6fa0ffb110306U, 0xf6cd1e31ff070c2eU, 0x6efeaf51b1a2302U, 0xf30d02f5e0d10bf4U,
  0xd0f620ea1ff60128U, 0xdbc5eb272e0c152bU, 0xbed70ffc2939e635U, 0x8c529fc16d4e0fcU,
  0xffc935f62bd6f421U, 0xcfb52b1015f8fe12U, 0xc6d2e21e0f162310U, 0xe7db0d05e9fbe6f3U,
  0xd8fa2509efef0dffU, 0xdf26233609eaf81cU, 0xf7ebf8150101e818U, 0xf20b3bf024e42eU,
  0xfaff09f6030eec1dU, 0x1d1ecdc1ae012ebU, 0xc7e3f10a1207fc13U, 0xdedb17df182d181bU,
  0x11f5081bf0ec1023U, 0xd1fb03dafade0906U, 0x140ded020e110d23U, 0x90a0ae31d181f03U,
  0x1de6fc0130e8f809U, 0xe5ebe12b3f35102fU, 0xb7be1e2a40cc0622U, 0xeda740082afcfee8U,
  0xfeab363d1b121324U, 0xd1d328fa05f9e913U, 0xbdbff00126faeb20U, 0xc5d8101c00fd33f6U,
  0xdd1a2114f2ef08f8U, 0xc40cff011913023bU, 0xdbf710edf905cb18U, 0xd7f712080217fe22U,
  0xe00216110d0d0011U, 0xc2dc003015e51306U, 0xf4dd0ef101ed0df8U, 0xd8de294409051cf1U,
  0xf0da12f82c0e2adeU, 0xfbf40f022cf81df6U, 0xefdfa1ffd260719U, 0xeefcf0ea142ad6fdU,
  0x2036e7ff2e07f41aU, 0xe221f4f654eb1e0bU, 0xb9db23fb4d17d5f8U, 0x9ba2c0a2b2fc919U,
  0xfeb859000f08bf1cU, 0xd0c71d10160cfc05U, 0xbac70bd11314e325U, 0xf3c7232f0aed1d20U,
  0xe6f626160723fb27U, 0xe018312700d6dd18U, 0xe8f4011c08f9061eU, 0xe8e2141400dcf51bU,
  0xbc0bfd031a0efa31U, 0xbcff04e8fb10f01dU, 0xdeed1f141dd5fe26U, 0xe0ee24fb0f1620f4U,
  0xd6d21ad22b0405f3U, 0xe6d508d60a0a11fcU, 0x2effcfc2227f8feU, 0xf8fcdbfc073afaeaU,
  0xd90225f74404ee0eU, 0xefea27f060ce0e21U, 0xc9bf25ea4beee815U, 0x1b52c082c17af26U,
  0x16a23329fcf7d207U, 0xbbc619f524fe0021U, 0xccab0308252a041aU, 0xced3300f09dd0cefU,
  0xe404472d0bd0ea28U, 0xc6041a0b0b13e507U, 0xecf3111e2b38de1eU, 0xe5f614092cfcde28U,
  0xd5e5180c280d132cU, 0xece610120f0ee9f1U, 0xd6cd1c1c0def0015U, 0xf3cd10140511ebf8U,
  0xe1e337131ff703f7U, 0xdbf735d20d37e4f9U, 0x11ff0e201600fe04U, 0xf8ffeae908ebedf5U,
  0xebfb0fd04aeb0ef9U, 0x9016173e75cd2f28U, 0xcfb51c034effcc20U, 0x1c8b3f303738e720U,
  0xd9b571d04050242U, 0xbfc53df01d2bf915U, 0xc2dc0c041209e126U, 0xf5b525c9f4e52c03U,
  0xe5023f0508eaed29U, 0xd30832f505e1f918U, 0xd5f2170b0ef3e40aU, 0xf611062034f4bb28U,
  0xd2ee093d2e0cdff3U, 0xe0f70fdc0905def9U, 0xdbe01f0a16dffc02U, 0xc0e118f50df7f9f6U,
  0xd9dd16fc18fc0f0aU, 0xe8083d251111110eU, 0xf0508071c2ff009U, 0xf0e6f9f81de30f09U,
  0xc4f903f84d0909fdU, 0xaa03f12e5d0d2926U, 0xc0a931175017082dU, 0x11993a392332c329U,
  0xfda24d0b06e9e511U, 0xc6e72d140ef0ea25U, 0xc8a9f9131bd6ed18U, 0xe9b52e1afecd02e9U,
  0xedff562d1fdaec26U, 0xdd18142d1aebe813U, 0xdf0a24211bd3d321U, 0x719031824081cU,
  0xf30610141c43dc09U, 0xd2f526051805bbfdU, 0xc6cb0df207deeb0cU, 0xd7e31fd00b15f6faU,
  0xc6d42ff913defd12U, 0xf1d32f310d0cd306U, 0x16fb120605f9e317U, 0x9f7f101141600f0U,
  0xb2d02d937d0ecf6U, 0xb608ecec60f52c1bU, 0xcec43c264dc8d829U, 0x381310422d4ac37U,
  0xff8856ffed20d627U, 0xc2b82c2b29c6ee25U, 0xd790061718090513U, 0xf4a939e008db1efcU,
  0xedea4c111612e90bU, 0xeb1024df283ae50eU, 0xece719032926f518U, 0xeafe002232e9eb2bU,
  0xcff20aed26e4fd05U, 0xe8e42a2b0f04d20eU, 0xcee326f21f0aedfbU, 0xe6ef3105f800e604U,
  0xccf4161c0ddb06fdU, 0xe7df193913f8d908U, 0x90207350bf01415U, 0xf8f107eb1cd0030fU,
  0x16e128234bce04f9U, 0xa4e6080256f83524U, 0xc0ae334760f20030U, 0x18b22fef45e5bb0cU,
  0x279d57130820c128U, 0xcad8310c16e7e60eU, 0xb9bd1cdf1223ff1bU, 0xedbe27ea0a1414f9U,
  0x6fb51fe0527fb26U, 0xe91822190e16eb1cU, 0xf0be143924120b21U, 0xf7e01b2d20f5bb0eU,
  0xf405253821f6cd08U, 0xb6eb2d2a08d9da06U, 0xd8e2140922eed114U, 0xe0ca2be612cd1311U,
  0xe5d12018eccbec0eU, 0x2eb32fd1ffed800U, 0x17051d26fcf60e1cU, 0xfaf5ecec05f3eb0aU,
  0xd9cd1a083ac9fffcU, 0xbc0f01155bd42221U, 0xd9bf170648fd0d2bU, 0x21922a183106c63eU,
  0x13913d19fe09d912U, 0xcdd639dc1907f51fU, 0xbdba1f292808f8f8U, 0xf7a641bb0ef22003U,
  0xeafd5cd804e8f4faU, 0xe0f70d2d2918eb16U, 0x7ee12ed3309051aU, 0xf5ec11251d34e10bU,
  0xe9d91ee6191a0404U, 0xdafd27091e2bdbf3U, 0xc4e028e116100504U, 0xe5ee2cdb05c0ea01U,
  0xf1ef111b0a25ec00U, 0xddf819fc17060705U, 0x209022d25eaf625U, 0xfff2eaf1fef81b0fU,
  0x1241f90b51fcfa17U, 0xa71fea325a262118U, 0xcdd31a2d6a091c12U, 0x78e26f93ef8a720U,
  0x69a40de10e5be0bU, 0xd3ae38061700f9e7U, 0xb7b30d051a1e0ffaU, 0x7b932fd23fe08f4U,
  0x15074801092d18feU, 0xc7ee231a220cda21U, 0xbef0ee03615ef1dU, 0xfffa045a1b07fd03U,
  0xf7ee0c2f2ec4e0ffU, 0xd5ea1b1110e3d1fcU, 0xd8e92deb06e6fefdU, 0xe7f3101a2009fe05U,
  0xe50420e30a15000bU, 0xfe030afbfce7ee14U, 0xfefd23ff23f3f103U, 0xfcf2e4fb30eeda00U,
  0xedef03e442d3f6fcU, 0xe2d3ffef5c052819U, 0xccad265b5111fc13U, 0xff8c240e43eecc25U,
  0x218344f103debff8U, 0xccbd2e021126e124U, 0xb094010928e2fee1U, 0xf5cb2ad1140f32eeU,
  0x1c14511f14f80404U, 0xd512153a23e2f925U, 0xe4ea07f721ce0c24U, 0xf5e3f05425f6d701U,
  0x3ea1218223fde02U, 0xe1e2130324eaa5f1U, 0xdbfc1cf213140303U, 0xdee12e1f01bc0e12U,
  0xcbd119fe2200fdf6U, 0xec080d3504cef108U, 0xcf9feef22db0f16U, 0x2eee5fd2528d612U,
  0xe01efd0c47b601f7U, 0xbc0ae7245f2e210cU, 0xe3e410105b16f02eU, 0xfa9914113ff9ce0dU,
  0x199f54d400c4bb1dU, 0xe4ba3bd51505c7fcU, 0xbaae0d081bedfbe9U, 0x7ce1dcc10ef18cbU,
  0x150141da13e1ee05U, 0xd7ed24f81535fd24U, 0x8090b2d1213ff26U, 0xf0eafe2818d2f005U,
  0xddd90b213800cbffU, 0xc0f320092332c5e9U, 0xd9e130f10415fc08U, 0xdeee0e3a21f60711U,
  0xf2e71343071ee8fdU, 0x30220e92ce70c0cU, 0x14151a2814dad00fU, 0xfbe4e7fa1716d200U,
  0xfafa04fd51ea0006U, 0xe525c0225efb270fU, 0xf1ce205c4de2fe27U, 0xf1a041ef3b34d904U,
  0x1e9e43f503dad907U, 0xbbcc39e90af6e4e3U, 0xbdb313f51cd5f5f0U, 0x1bf2f05110124c1U,
  0x703400816ce1512U, 0xcd1312f10c031d2eU, 0xeebe0ef52c22df15U, 0xfa1006131bfa0614U,
  0xefe9041435ead7fcU, 0xe0e31a1d3111cefcU, 0xecdb0f1c2612edf2U, 0xd70f15f72703050aU,
  0xd3e617100802fefdU, 0xedef14081bf71a0bU, 0x204163530f31714U, 0xf9e807ff1ee6eb03U,
  0x4fc15fd33c5fc1dU, 0xd016ce353bf92019U, 0xf2c41c363ffaf632U, 0x179d232a37f7e80cU,
  0x18bb44dc1129c9e7U, 0xcac3430207f3b3c4U, 0xd0da1906130301f8U, 0x15c9461a17ba28d5U,
  0xfefe4dfb0a1803fbU, 0xf618061d25e6e225U, 0xf0e129262bd10fU, 0xf0d3012d23ecd71aU,
  0xe0ee052d21f8e200U, 0xedb9241e32f1e5f3U, 0xd50326ee0df7f7f9U, 0xe0e81df605250f14U,
  0x8132bed02f4ed18U, 0xf4ed091c13e41601U, 0x81621311ffbf615U, 0xf7f8f8f5f7e009U,
  0xe0f2fdf629e90df8U, 0xe32bc83c4a422621U, 0xe2ed10304009e90eU, 0x3a9281941cfc821U,
  0xdd1392e11ecc2eaU, 0xe2df22dc0fe5a0cbU, 0xc7d90f2717cd0aceU, 0xf2c72adf06082bb2U,
  0xf41631bc08100f1dU, 0xf3ea0bf0f5dff81aU, 0xe9e3002f0ef9ee31U, 0x10f9061b2c3b07feU,
  0xdbf5f20b1920d0fbU, 0xd4d51542170eecdfU, 0xe3f4180b151ef4e7U, 0xf1e71f290b01fe04U,
  0xebe3240a0d2cf60fU, 0xfa050c0b24101117U, 0x110f060623e4e314U, 0x1e4f6f20421fa07U,
  0xc12517e83a2217fbU, 0xe229e0233dfe260dU, 0xe2c41a204001d323U, 0x1ee02b243e1ed905U,
  0x1bba25e416f4e1ecU, 0xdcd2282c1d07a2f3U, 0xbbce0f3118d2edcdU, 0xffba37f3f9e32fbcU,
  0xfcf84ccdfff61506U, 0x208fd2d0ecc0225U, 0xfd12122d27fbc432U, 0x3e1f71a1d10d6f1U,
  0xe81011fa320cc805U, 0xfbde05fc12f1ebffU, 0xde01d8171a12f8U, 0xf8ff24251224e619U,
  0xdfd31bdf11f21015U, 0xf7f111f606040b18U, 0xd06030b2dfe23f6U, 0xfddaea07000ee70bU,
  0xd503040637f7ff01U, 0xee1db62b41d51427U, 0xe3ec151a4207fc30U, 0xf4da1a0032f6b708U,
  0xfdc44be11afcd9e9U, 0xc5c422f50e0e99c7U, 0xc2ec001d12e911d0U, 0x11092e2222e826b2U,
  0xef1233c900061511U, 0xf0111900e6de022fU, 0xdf501221836c834U, 0xf7df01f41a37eb04U,
  0xfdf50efa1cdae7eeU, 0xc90b172306f8d7fdU, 0xf2d60de214eff1dfU, 0xf8eb052e1433f403U,
  0xd9100bf0fe10f31bU, 0x319fa2511d81d0aU, 0xe806201801f7d915U, 0xf9eaeb0516e30b15U,
  0x28141924261700faU, 0xcd06dd243b1a1d00U, 0xe20503ec3cf3f90bU, 0x15d60b022af3ea0eU,
  0x5f0432a11e100ecU, 0xceb629dd0f31d1eaU, 0xddf40ce825190bd8U, 0xf00025e5160d47b7U,
  0xfe1233fbf01009f9U, 0xf9ee0800e6090f20U, 0xf9da17fe21dac83cU, 0xf905124e27fc06feU,
  0xdaf70e0c0c08f2f9U, 0xee10e53f0ee108U, 0xe50117ec0d0e0eedU, 0xfa051c07fe160119U,
  0xfc14fdf70710130cU, 0x30e61a000103141bU, 0x6e8ee3afb23f017U, 0xf2e3e7fe371a091cU,
  0x1008d30c1d09edf8U, 0x1c08e8072ed4fa1fU, 0xf4f50c164825c117U, 0xb1d133d3c20a4cfU,
  0xfdd62402fc13ebcaU, 0xd6fd3005220494cbU, 0xb2e1eecb291df8c9U, 0xf0dc35ee03f92a9aU,
  0x13fb46fcf4f31eeeU, 0xfd09fc291de10212U, 0x3e7ee27051ce524U, 0x18190f1a124de2fcU,
  0xd9100cfe242e03f6U, 0xe5ec061f0e14fbe8U, 0xf0de0d0a10100ceaU, 0xe6e33bfa150e0501U,
  0x5fbf5f8120efe15U, 0xff302fe020fb11ffU, 0xff4006f2ebfa281eU, 0xefe5ef24fd01ea10U,
  0x27091207fff2f5f9U, 0xf5fdff57f6021bU, 0xf1fdf619301cdc45U, 0xf9ea0cfd062db51aU,
  0xe0df27090ff6bfe0U, 0xdc1117d31dd99ad0U, 0xade8f7f61b20d7abU, 0xddfe1c1018fe27b9U,
  0xe70354f4fcd617f1U, 0xf52f03d3031a0024U, 0x1aea241a1b170b15U, 0x41f16f41001ea0cU,
  0xf7f120f221f6d006U, 0xfe171341f80ee4feU, 0xecf9141a161901f4U, 0xe11f6f70e080c09U,
  0x13f4fd03f4031003U, 0x1213060803f11510U, 0x140602ee01e9feU, 0xfb1edf16f71d0811U,
  0x5e300d21903f113U, 0xf6050ffc15f9fcf4U, 0xf513fd2129ec164aU, 0x322f2618140de7e3U,
  0x17ee451df600c0daU, 0xcdea252af5c5c0e2U, 0xa2c904f01806d5d8U, 0xe33016eb27dc1097U,
  0xd52220d31de027f1U, 0xf113f1c8f7140a0eU, 0x431e80ce41a0530U, 0x9192814ef0aff29U,
  0xeefe15c40215f6d2U, 0x16ed0ef8f32c06ecU, 0x800021bf0f6fae4U, 0x10e82106f9fe03e9U,
  0xa2cfd20ebea1d12U, 0x9e10c09de25fd12U, 0xf60203ee08e70920U, 0xf417e4e1270dfb0fU,
  0x70904ed0f0d1eeeU, 0xb0808eb1914fb06U, 0xe7fefd152ffc0013U, 0xeffd243417f51611U,
  0xde03eb18ebf6f8ecU, 0x7f7d210f10c12e6U, 0xfa00cc2bf6e7fe23U, 0x2cfeecd801d505eaU,
  0x2817e8fafa1fee23U, 0xf402fb16f6fcc7f0U, 0x2c0bfc20ea3714d7U, 0xf03db1408190e24U,
  0xd3fcf7f1051d031cU, 0xee122502f0ec1ed4U, 0xf11611e3fde13400U, 0xef60fd504fe0bf5U,
  0x2d09e2300de30f04U, 0xcf332e92b132cf2U, 0x7f8f906fb20feceU, 0xd6ffd2030cfb0df8U,
  0xf51df8332ff826eeU, 0x10f4f4dfdd140d0cU, 0xf825e821fb00fdf9U, 0xa06ed170b19f901U,
  0xe103f72035f80df9U, 0x340e26f513f6e0fbU, 0xcd0d071127fcfc02U, 0x280e3211f6e11d09U,
  0xf1fd11e9dd0b11fcU, 0x15060af9fa1807fbU, 0xa04fee108192ad6U, 0xe0705fd0bf62303U,
  0xe3fc1af8e2eef2fdU, 0xe0a1bf021181505U, 0xfbf9cee8ff06eb2aU, 0x33ed0ae11a2601d7U,
  0xda022ae40cf90201U, 0xd3eafb100bdcf5f3U, 0xf0030714190d37e7U, 0x1ff0106eaeff502U,
  0xd91208f80c34050bU, 0x4eff8ea16eeebf0U, 0x1524f30dcc22d343U, 0xe415db30f70017f8U,
  0x2c130f1f08d52804U, 0x73dd9ff2c311e1bU, 0x280a07f3f5fe0428U, 0x1d0cfded14061a1fU,
  0xf2162efe0bc715e8U, 0xcfaf113fbfaf40cU, 0xeb151a06ddd3ee03U, 0xd10df209dcee2d0bU,
  0x1523f3e21f12e219U, 0xafceb14f8002b0cU, 0x231a20c8e2ebdff7U, 0x1c0ce526fe1a1cefU,
  0xe01210fddb0e12f8U, 0x7f8f21b00291adbU, 0xf8fefb25fa29120eU, 0xf4f805f00dfbfa00U,
  0xe8e727dd3503fcf5U, 0x3ed9e11415d0fd0bU, 0x1d1eff16f8060011U, 0xfa0d06ebffe50701U,
  0xe80bd53113ed0ef8U, 0xd321fb08d3f4e9fdU, 0x6062bf5feeb0203U, 0x2b0314d51e1f19deU,
  0x41e52909d6e8d400U, 0x13e11b1302e0ed39U, 0x332e34f7dfe821edU, 0xf10709fef2ef05dcU,
  0xd70413f40af00f1bU, 0xd8e9e3ccdaf8f214U, 0x2519ff0ee1e8ff01U, 0x40d15d70602d425U,
  0x16e91cea08ee10ceU, 0xde1f034030534e4U, 0x7f3edfd011b1ffeU, 0xf60c03f2e9130a12U,
  0xf038ffdd19d80becU, 0xe0be82c0007ea06U, 0x2332f706d0d21720U, 0x3415d7d7faddf506U,
  0xee37daeffcf7073aU, 0xff0ef121daf40c19U, 0x3718f932f228f2e6U, 0x571e32d7cc3901e8U,
  0x3aea2bf0f1f8d8f4U, 0x2ef52826f7f219eeU, 0x190411fabb1010e0U, 0xe10e0900fe03cfecU,
  0x5fd0f20f3f6281bU, 0xffb1400dfe71702U, 0x1c0af7d918fc1001U, 0x1f615e9dbcd06dfU,
  0xafd1bf401f705f2U, 0x3fa1c2ee1d41ae0U, 0x20202f70f2eebf8U, 0x50d00fb071f1011U,
  0x311fe26f60cf4e5U, 0x2a30f323ff2ae011U, 0x849fc0ccf0606e9U, 0xa1d012dda130b01U,
  0x519ec29da17e4e9U, 0x331ba27000af733U, 0x271316e7d6fd0b02U, 0x541b4fe8d2eb10caU,
  0x30fd4101e6ff0609U, 0x2afd140dc0fefbe1U, 0x222000ea24fd07U, 0xbe428f5d31e000aU,
  0xf2e7f8f4e21d05f7U, 0x30cf70efe16f510U, 0x22f018edee0ff5edU, 0x24e509f7e8f61eebU,
  0xde0e2011e32c303aU, 0x1c0e00dbd1dcea08U, 0x2f908ebc7e30412U, 0xf200f1f60401341dU,
  0xf9dfe429e022fde8U, 0x1ae9c3dfd717e5fcU, 0x3149e9ecb5f908e9U, 0x322bd0edcdecf821U,
  0x2f25e23ed412d5e3U, 0xe22d03cef113216U, 0x2e1e270b0cfc140bU, 0x641648feddf2e2cdU,
  0x42ec4202beddd604U, 0x27ec3ce4bee5f608U, 0x1bfe33e4da020303U, 0x1d110f13cbfedaedU,
  0x306070deef70706U, 0xcffdbeddaf9e913U, 0x421210d5c3e11fe9U, 0xfdf62bdae50326deU,
  0xfeeb02f8e514f325U, 0xf8efe907fdf527fbU, 0x2f4f4faf215e0f1U, 0xf8f6e408e4fa39f2U,
  0xda2b1f1dd7e9eaf3U, 0x2411cbd3e00caa1aU, 0x4643200da30c0610U, 0x3717e504c8180b1cU,
  0x2f18db06dc16ff0aU, 0x1513c1cf0b15e7edU, 0x6609270cf9d810d9U, 0x61166104bbdbe6e1U,
  0x39f05800c5131815U, 0x27f627ebd90309d7U, 0x2af627c4dcecc52fU, 0xa1109f2cdd2e70eU,
  0xe202f5f80bf00efaU, 0x1807ecf0ff13f807U, 0x39ff24f2e707edcfU, 0x8f923eebf0eeff6U,
  0x1ae60e05de0bf9fdU, 0x190fd9fcdb2b1024U, 0x13f3ea04faefd3faU, 0xf102ecebe50fd5f2U,
  0xdd310f13ef160ae8U, 0x41c5f6f0af28ae23U, 0x35440b05b8330801U, 0x4a25f4e0b50def31U,
  0x3728f5fdccd507f4U, 0xf923f717eeeb24d3U, 0x47241e1def1201d4U, 0x7f1159ce9ef6c5edU,
  0x43f8560cbf26edf5U, 0xeda4ed1d4e5120cU, 0x241825cfd012c338U, 0xaf31410d120ed1aU,
  0xdd1ffcfdeae5f7e0U, 0x2516e425f820f102U, 0x2c0518fbe7ce04e2U, 0x14061af9dd1b08e1U,
  0xe14f4fff5c80018U, 0xbe4e810df36f8feU, 0x14f6e7d31518e601U, 0xf4f2f3ebf727e101U,
  0xef0bedde2dbff04U, 0x34f9d6f1c1e6aa36U, 0x325014d5b02bd31aU, 0x521efff6a60bde20U,
  0x319f739def3070eU, 0x142fcdeef62326eaU, 0x4b010e24f4efbfc9U, 0x690e4cd7b0c904f1U,
  0x58f366d3b01308daU, 0x3ee63316c4e9eedcU, 0x341a2ddbbb0cc242U, 0xffd26fcc90ee009U,
  0x522f7fdf110ecffU, 0x1128de0404180604U, 0x1601260dd015f9deU, 0x23e91fd4c817e7f0U,
  0xbf20b1d000c2112U, 0x2ee80019d9e0f909U, 0x208fdd4d4122408U, 0x9f5eb0e11d610f7U,
  0xea18e90acdffe801U, 0x720bf7d2c0d8a223U, 0x432c22d4b001d714U, 0x4f210312b9100309U,
  0x37190121cf1422eaU, 0x1514cb13fb0202e5U, 0x57fd13fbe506f9e0U, 0x620251e5b3ffdfe4U,
  0x4ef858ffb2fdfdceU, 0x40ea43cdcd27f7f2U, 0x27fd2d1fb615cd31U, 0xf072cd6f1ec0f20U,
  0xff28f80c070bf9fdU, 0x1a23e92bf502ff02U, 0x31002712d50ff3e4U, 0xeff35bde52ceafbU,
  0xf04fa0d0712fd18U, 0x1eef010ed80bfc2aU, 0x5fe062bf9381affU, 0xfef8fdfe1b371c17U,
  0xf0f3121dde0ffe0dU, 0x5de6f5fcb2fca436U, 0x2e4c11cfbe03e01cU, 0x5a1f060ac9edef02U,
  0x38150217d90b09e9U, 0x50cdefc060a22d7U, 0x521e2eefdbe0bbddU, 0x5f003ec792eaea09U,
  0x54e459ceb60b0e07U, 0x2ddd4e03cad10ef1U, 0x38ec1b00b9dcaa35U, 0x71633edd617021cU,
  0x1c0509f51b02dffeU, 0xff02e01ef324f709U, 0x3a040ce7da01f405U, 0x12ff2908e0001217U,
  0x1011081ee823071bU, 0x1de8f42cd5150725U, 0x2203faf2f1110610U, 0xf810e7f6f811fc0fU,
  0xf9f3cd09df230016U, 0x5ffcece5c8379c3fU, 0x482f10d69c03f024U, 0x603309d2a8f5f418U,
  0x2119f23bd3311b00U, 0x727da0a0fda1de4U, 0x3e071cc6edf8bee5U, 0x6ff959e3aae7e4f8U,
  0x3df65fe8b51afefaU, 0x3de1562ed5f3f9feU, 0x420227eac60ee32fU, 0xf1331ece0d8ec06U,
  0xe0e120917fbfaebU, 0x291dea2308ed1f0fU, 0x290e25eab814fae0U, 0x1cf934d3e8081701U,
  0x1410ff03e6eaf71dU, 0x1812e9d3dbe40319U, 0x110eedf2f2180817U, 0xfa00f4fa0c3ae1ffU,
  0x160e2adbe3e4ee21U, 0x73f72c09cb0b9e25U, 0x342e16e3bd11e91dU, 0x621e011eb2f9fc0fU,
  0x3a02f82fddef0f00U, 0x708eb1302fe1fc9U, 0x492d1201b8d4c8e8U, 0x6dfe4af1bac2eceeU,
  0x4ee557edadfe02dfU, 0x2edf55bbd40af10dU, 0x4014251fda0ac933U, 0x305411eea0ff709U,
  0xf72c0bea0ce31004U, 0xdfad6cfef11f008U, 0x2d0121ffd71deffbU, 0x280927f0e7fdfcfaU,
  0xfa08fa1bf0da1f17U, 0x29f5ec06ca370621U, 0xfd061119041f05ffU, 0xfee105d7022502U,
  0x16f8e4c5d1fafb03U, 0x72d5fcd0aff99a28U, 0x313b17cba805fa10U, 0x422709cbab2fda23U,
  0x2718f627e6071806U, 0xf921d924ea221801U, 0x3f08febfdaf6cbe7U, 0x5c143eb8b60dd1e6U,
  0x4ef14609c70de0e2U, 0x31f354ebd3dcff13U, 0x2d1938f9c31ac926U, 0x1efe2cc2e7cdf405U,
  0x17fb001c0e04010aU, 0x20f8ddd70512e7ffU, 0x3cf122c2c50f07f2U, 0x1c082af7e8e11310U,
  0xf702fed2edefeb0dU, 0x1e16fe13e2e4ed12U, 0x706f503f020fe06U, 0xf8fce6fff3020a0aU,
  0x921e5c3bc27fe0bU, 0x5231edf5eb1a8528U, 0x3a4318d3aa15cf05U, 0x402d02c3bff7f02dU,
  0x1914111dd239241eU, 0x1505e724e0e816ddU, 0x401b05e7c221e8e5U, 0x600439c8a413cc08U,
  0x44dd40eacb0cf0edU, 0x31d653d8c90a05f7U, 0x31f241fad4ffd646U, 0x2cf02ae6cfd30704U,
  0xef2503c6f70c06f6U, 0x1215ef27ee230509U, 0x44132024ed0be8f9U, 0x2afd29cdd3e8050dU,
  0x8e809e9f1eee426U, 0x16edf704ed17eb1aU, 0x141e03021002d6fcU, 0xe305e405ddee0c11U,
  0xf1dfa23d940ed0dU, 0x52f40ac0e1179126U, 0x3c4318dda7f9d00cU, 0x332e1ec1a1ecef2bU,
  0x2c02fe25e3031419U, 0xe1ce8d206d516fdU, 0x3fff19d2bc28df17U, 0x5bfe3de891eae7e0U,
  0x3de947d4cbeaf6ffU, 0x30ea5ad2c50319eeU, 0x2e044016cdf7e033U, 0x72433f8e2dde4fdU,
  0xfe100011f4edf9fdU, 0xe0bd7d806d0f71aU, 0x27fc1ae8cc2aebf2U, 0x26011eebea140e05U,
  0x3fff306fe24ff0fU, 0x3302f7d1c8fc1d13U, 0xc051c0dfef0300bU, 0xfb04f70d14ca0808U,
  0xee1aca1cc83bfc2aU, 0x531f16ceca05a03eU, 0x234d1fc5b507be0aU, 0x511c0fb7b1fce723U,
  0x201df6eef7142406U, 0xb02f2cde90d1300U, 0x330016eacb15bc13U, 0x5bf05bb8cf0fd6f9U,
  0x43e64eeca1d5f3d0U, 0x4ee942eed0281204U, 0x3c241a2acfedd12aU, 0x1d083302d0e8db04U,
  0x33916dcfd0ff708U, 0x1810f006f32f0f09U, 0x20f00ed6d5e80be9U, 0x101728b1cff00617U,
  0x104080bf830d914U, 0x31ff09da00df1916U, 0xf2805040202U, 0xfefce901ddf602f8U,
  0xef20d7dfc808f423U, 0x61dc0ec9d527ac2fU, 0x204a13e2b313f316U, 0x39321a21dbdaf231U,
  0x2a22fbf3f51f3517U, 0x18e1e911e3f52ef8U, 0x460a090bdfe1e016U, 0x57f63edcb012d717U,
  0x2ecf46d8ab05f3e1U, 0x45f639e8dae426e2U, 0x2d113009c514dd1bU, 0xae732dcc8fbebe8U,
  0xf6fff4d2f6170406U, 0x10ebf5efe72eedfcU, 0x30041305e6270adbU, 0x13083e0fdc14e906U,
  0x1becfe0adfcce311U, 0x1d10120beef60f19U, 0xf60bfb0e1d041005U, 0xfd05f7f9fbfbf016U,
  0x1ef9e41fe5490318U, 0x45eb15d4c618a231U, 0x3a191eb4e9d4e903U, 0x4239250ebc25e31eU,
  0x21f4f7f8f40f2125U, 0x200ae30bfc1e12e5U, 0x31020e21b635cffdU, 0x41fa4ece8dd3e112U,
  0x2af853fcd8dd04e5U, 0x43f73ddac7fb05e8U, 0x2e2139e9f00eb21aU, 0xfb0828d8bcd0f2ebU,
  0xdf2cfd2205d501f5U, 0x3705ddc1ea13e906U, 0x27e61c09bf07f9e3U, 0xee52a0aeddb0d0cU,
  0xf13eff52611ea0cU, 0xfe09f8c304ea000fU, 0xfceff70cf6e025f9U, 0x6f204ff0d01f316U,
  0x27f3e918e815f313U, 0x4a2321aebb17924bU, 0x30083bc69615c12cU, 0x1e051dcaf5eb0534U,
  0xa1a10f3f31b28f8U, 0x1703e807ffe71be2U, 0x4de404becae105efU, 0x5aed3aeebe18ed09U,
  0x26f259e0d800fff8U, 0x4ae939f6cff7fad4U, 0x27063bf6dc05f004U, 0xf40b10e0e3e3f7dcU,
  0xfd26ff08e42811e2U, 0xf5f1d3e7f62d1509U, 0x270a2dc9d704ebf1U, 0x1dff19baf00de3faU,
  0x10141220f91d000cU, 0x607eff9fff71601U, 0xf10e0ef4fc072ef6U, 0xfe020305cdc81200U,
  0xe0d8c8f7ec22040dU, 0x4be21206c608b234U, 0x2d172cf4cfe5cf1cU, 0x360216e4d90ef00eU,
  0x3609d1001c2227U, 0x171dfd03dff011d4U, 0x19f80cf2d508e6eeU, 0x4bfe2dd1d2e6e2faU,
  0x32eb44b8e3d8ebdcU, 0x2df33fcce6390fd3U, 0x3af748f9e708dbe7U, 0x11fd2914c0e710e9U,
  0xe8f400e00d05fefdU, 0x7f8c8f4fee200faU, 0x221409ff0408e0e3U, 0x8df2e0abe1d1017U,
  0xd1204f6e82af502U, 0x200c0de80302ff15U, 0x845fc07d1ec0308U, 0xfaf7e70df5001724U,
  0x312d006e91efe22U, 0x220d08cad9e7c424U, 0x290544dec8221dfdU, 0x19e10b0bdde0ec0cU,
  0x1123edf2c40306f5U, 0xa0ed80203f804e5U, 0x2cdafefecbbcd3deU, 0x41e932d9e225c6faU,
  0x1dea30cc0bee01cbU, 0x1ef62602faedf0cfU, 0x1b2027eeffe8eae3U, 0xf4dd3bdb000d08ceU,
  0xeaf907e303e2f50cU, 0x7f7c6f9fc2ff1f6U, 0x212b2beef5defbfdU, 0x130c2a06e6ccf108U,
  0xeafbedeffaf1db09U, 0xf90b27f0f5d8e700U, 0xd7eae0d7bf1613U, 0x5fffd0600f5ca11U,
  0x26ee29f5fd220f2aU, 0x35e929edd310d033U, 0x3f0c3cf7e4e1d407U, 0x261818dfd3f6db15U,
  0xe4f3f00a022034e9U, 0x1f00fe03fff0f1d5U, 0xf1cb0c14e4dfe201U, 0x1ef428c9d310dafaU,
  0xffc4df601faf0e2U, 0x5fd32d200dcdfd6U, 0xd1513ebee1c05c2U, 0xc9f8f1dcf602e8ceU,
  0xd52317ebf5f41204U, 0xe822e00e1a0af105U, 0x190bf101f9e2e5e2U, 0xfbf31d0efbcde114U,
  0x1aed13290d01eaffU, 0xd4d8031dd5f3f60dU, 0xfede7faeedde5f9U, 0xfae8ea2004ff2801U,
  0x142f0dfc32fe0416U, 0x480110ff05d1e936U, 0x17f01a14eb180e0eU, 0x3fe05dfe3fef907U,
  0xffd80b1224c40bf8U, 0xd1e4f70a340207e8U, 0xbf5f41c11d7e8f8U, 0x20e41c1cebf61018U,
  0x2eb3de302fbffdbU, 0xafe5124de29e7e9U, 0xd6ee0fef1aebf5eaU, 0x1da2304f5f223daU,
  0xe32aefc4fdc8f20dU, 0x122ae7fe1def18dcU, 0xef0cfefefcdd05f3U, 0x16f802060316cf08U,
  0xfd0226dafcf0ed05U, 0x5fd031ce70bf313U, 0xefe2ffe3c9f30dU, 0xf5e2f1c8e0ede60bU,
  0xe10af0f7151402U, 0x1f610e00e051803U, 0xdaeb0a010e0f071fU, 0x8fa06ff0e22fefeU,
  0xd0ef7ddfdf4fb04U, 0xf20af4e7f902d6f4U, 0xf410f30512fb07daU, 0x9fdf402ff16df0dU,
  0xfaffee0aee0be0f1U, 0xe18ef0320f8f6fcU, 0x9ffe0f9ec222100U, 0x804f70efbfefb28U,
  0xfa01f807f5fdf5f0U, 0xf40cfbfef1edf2e8U, 0x514ee07f217f81dU, 0xc0c19fcfa030a03U,
  0xf70afe19f7fad906U, 0x21008f9f6131eU, 0xfd070202eae3040aU, 0xfa02170911171202U,
  0xea18f309f7e4ea13U, 0x11f10ded170fdb0aU, 0xfaf6e5f71af904ffU, 0x11ed1ce0e5e604U,
  0x1413ece417f80411U, 0x170a1001ecf4ec22U, 0xf9fcfe0b02e6e21aU, 0x3fbe1f1f120dddeU,
  0x1115e203d7f803U, 0xfb07fb12f5f9dd1eU, 0xb0becfc03f20104U, 0xff61914eb0cdefcU,
  0x17f1fb0d03eb1bf5U, 0xeaf808fdf4eceaebU, 0xafb00fcfb17f91dU, 0x220cfa061fef13edU,
  0x260be0fc070cf00cU, 0xe70ef7e3f80c1418U, 0xc071911dc07dc13U, 0x603000cf9fc150fU,
  0xf8f922250bfc0cf1U, 0xfe2304f8e5090b07U, 0xfdfa0416f2e011e8U, 0xf51513e9f10403f8U,
  0xe708fb0cfa12f4efU, 0xfc15ff12e3ebfdf7U, 0xe703f4031525f800U, 0xfb0202ef09e6220eU,
  0xfd08210f0f17fbU, 0x26200804efdc1100U, 0x411f4f803230406U, 0x50304f916fd0b13U,
  0xe41002ebfff8d7ecU, 0xfff719fef71318fcU, 0xf1fa06fd0114f50fU, 0x140cfe0af1fbf6feU,
  0x313dfe0140a1424U, 0x9030608f0efe4eeU, 0xfefe011101f406f6U, 0xff020e02f8fff51aU,
  0x12110ee2060607eeU, 0xf7f0f6e7f6e319ffU, 0xf4f613f2fbe9e6efU, 0xf108e11917ea01f3U,
  0x419f2fb13031613U, 0x325ec171003e9edU, 0x406fbdc0706ed06U, 0xd903fa0104fde9fcU,
  0xd00bf6fc04fe0303U, 0xdb1509db1d150ff5U, 0xf1bfbdc060fe002U, 0xf7e61203131310f4U,
  0xf6e51414e20b1effU, 0x61f0efef3edf20cU, 0x508f9fdeded11e5U, 0x1a06edf70c000204U,
  0x1409f4040df81d1cU, 0x1807d4e8fffb20ddU, 0xe609ea11f6e01106U, 0xfe0e080902ffd7edU,
  0xecdf03e502190609U, 0x30b05f2f915fdfcU, 0xf0fd000706e5050eU, 0xf214e7db25ff32fcU,
  0xe223d513281b20e4U, 0xfa1300f71a010108U, 0xd71e0514f20b0de3U, 0xe9fdf12101f0f01cU,
  0xe4f3eafc11f3fb08U, 0xf21d060013f90707U, 0xf11f15e1f01bfefbU, 0xcf12507fb12e51aU,
  0xefe61501f108f1ffU, 0x7ef08e3fd1105fdU, 0x70e0df20619050cU, 0xdc12fb021bf1feffU,
  0x11af0e2fb14011bU, 0x130dff13f6f7edf8U, 0xf314f4e8f6f423dbU, 0x40f1304f9f60a11U,
  0x4fc0205fff70206U, 0x1e0e0dfef6fb0cf2U, 0xcff9f70a10fb24f9U, 0xdb20e5fc35132eeaU,
  0xf82eea0428f32315U, 0xef2805e10b1a26faU, 0xdb01041205ef1a05U, 0xcdf2f51b08e90e03U,
  0xd3f8e3032ed911faU, 0xe825ea0e20fb2affU, 0xd1101717f101eae0U, 0xe8ef2208f8f80908U,
  0x4e91c18fbefee19U, 0x5091af7140f02eeU, 0xe51a0708eff7f2efU, 0xc05ef0e0f0e14e1U,
  0xff20fd1c09140e0fU, 0xed1bdee70aedfbf9U, 0xec0dfd01f40e0ce2U, 0xf60dfcfedbecfa04U,
  0x1df30102fbfb0409U, 0xf102f40cfa120ad4U, 0xbb0105091cf71f0bU, 0xb213d10a3d052df0U,
  0xc331ef1d291a24e1U, 0xe7100a0e151409d8U, 0xc5110e0102eff6f9U, 0xba06eaf1141c09f8U,
  0xde0ed2ec1af028efU, 0xd21e01f80e001be4U, 0xea111319ff08f9f1U, 0xefdb1c1ef7dff9ebU,
  0xecf51502effde7e9U, 0xf904191808fdfb13U, 0xf2061a18eb0ffcf7U, 0xddfdfadb0e181febU,
  0xf21df0f510e8f4f7U, 0xf817e6fe01260105U, 0xee04fcfa01eb02deU, 0xf703f409f21b24f6U,
  0x7fc03fff902f804U, 0x90216f409e50cf2U, 0xc50103df22ea1bdcU, 0x982fc20c2af23cffU,
  0xad2ade0c20ff31e2U, 0xe21b011e1e151302U, 0xcafe0e100a050f02U, 0xabfbf3f50dda14f2U,
  0xc304deef38f31e06U, 0xd51ffae51d1115ebU, 0xf20c20f6040e0cefU, 0xdcdf21ed0bf6f9f9U,
  0xe4cb17dffffdfa0cU, 0x61404050a00f1U, 0xe3e808f0f022fe01U, 0xea10fa0d08f41106U,
  0x410e00709130d06U, 0xee14daf1072315f8U, 0xf00cf2f3101322dfU, 0xf50cf8faf80b0f02U,
  0xfb150de2fd0b0cf2U, 0x2052b0a14fa19f7U, 0xae12fe1d1ef619e6U, 0xa420cd1846f934e2U,
  0xc524f5061fe13dd3U, 0xcd1310f11b1a17e0U, 0xc81fffef10fff3f8U, 0xbb00e9080c0d1311U,
  0xc111d6ee0f0010fcU, 0xbc24092604de26fbU, 0xd00a22fefb0519fdU, 0xebf215f80520f7fdU,
  0xeeec20d6041af3f8U, 0x50905fce70008edU, 0xe60608ee11f90df9U, 0x613e7160b030ef7U,
  0x121ce9eb0fea1804U, 0xf209f0ee0302fdffU, 0xf007e6150f25f7d6U, 0xf60607f80b2411faU,
  0xdce0ef0008f607f3U, 0x3050afe03f10aedU, 0xb10f08f72cd21cf5U, 0xa023d50d30f43cebU,
  0xb32ce8293cfb1ecbU, 0xe21509e51bfa20efU, 0xc906f81f0e0ae4e9U, 0xacffe2fc10ffeb04U,
  0xc60fe4112bdd12f5U, 0xc826edff101931f8U, 0xde0a2702fef3fe01U, 0xf8df1ce7fc1c1cf1U,
  0xded918e8e80cf409U, 0xebea16ebfd13fafcU, 0xf6eeeeda00eb030bU, 0xfcf1f1fd0c0e11ecU,
  0xe320e00f11f512fdU, 0xf729d7ff1611ed02U, 0xf0f7f8ed28fb01e6U, 0x204fe0bf01ffff1U,
  0xf5ff050dfe0beef9U, 0xdfe518e2130016eeU, 0xb7f90cfe1df207d8U, 0x812ad10b331f38e7U,
  0xa233f205280727cbU, 0xd1150afe25fb16e8U, 0xb2000f091207f213U, 0xb70eeafe0f28050bU,
  0xbb0de105180c18efU, 0xc1140202240624e8U, 0xd71416fc0a130affU, 0xe3cf0601fc101c01U,
  0xefce2116fffe1302U, 0xeff21ce8f0defc02U, 0x2e7f70505eefff8U, 0xe802f3e8061f0502U,
  0xef0fe1191d0200faU, 0xc0ad3f312f8f902U, 0xe701e9123df7fefaU, 0x10604fc0230e20bU,
  0xf8070d00022100feU, 0xfafa06031bfb28f2U, 0xb2ff030929f620eeU, 0x8d27d1174c0a3ae6U,
  0xaf3ae7172d0f29dbU, 0xd712050d1dec09fdU, 0xba0010eb0108e110U, 0xa704def80a03f90fU,
  0xc6fbd8151be120f3U, 0xb61ff80f0dfe27f6U, 0xc0230cf30eebf9f6U, 0xe1d91bfaf2fa05fcU,
  0xede621f2ef0e00f7U, 0xd7f11918faf70c18U, 0xf8e2fb0c10e60017U, 0xfff8f6f20f231d05U,
  0xf71ae11b221e1507U, 0xf107dbe236f817f9U, 0xf609f2fc232df8ffU, 0xfb0efbf9fe07ef03U,
  0xfde9111d09f2fd06U, 0xf6ed30fb130c10f5U, 0xbb08f91f28fd1af1U, 0xae31d2133df43406U,
  0xb43ae5f329133ff1U, 0xd51ffaff1b0e17e9U, 0xac1208190febde0bU, 0xba05f5170de2f704U,
  0xc010d919102b1ef9U, 0xc124f506241624edU, 0xbc0a0fff0af80e09U, 0xf7dc100ce9eaf9f0U,
  0xe3d92207fc0d2700U, 0xf3c815120b220304U, 0xe0f702fc09fc1704U, 0x1304e8ff130f0afaU,
  0x18e60a2004fbfdU, 0xe80cd7e2260afd08U, 0xe904dbef2cf50608U, 0xfb07fafd162f10fbU,
  0x2a0ffc11100cf709U, 0xfa1c1302092014f4U, 0xd905070634102ffcU, 0x9d28ca1d3c003edcU,
  0xb43be10c30e128d0U, 0xd80d08021b1607e7U, 0xba16fb001009e009U, 0xb5fbef1420e8f622U,
  0xc001e2301cf82fd8U, 0xb81ffa0d0d1929f4U, 0xca1313ef13e00102U, 0xd4fe11fff21613f5U,
  0xe7d42af40cdf1a01U, 0xe2ce0ef10beb0107U, 0xf8edfb0210201203U, 0xe8f5fdea220211f6U,
  0xe728e1e81e0820feU, 0x180fdb0b2005fb10U, 0xeb08f7f329041f01U, 0xfb0ff9052e40f6feU,
  0xfc00120f0a24f5ffU, 0xf3121f1f17f210ecU, 0xc5feff2a1f0016ebU, 0xa827c9183ae83d06U,
  0xb436f21b2a2732c4U, 0xe009ff0418eef5f7U, 0xb0fff80c02d9d516U, 0xb302e91e06edf01bU,
  0xc306e01c161126e7U, 0xbc0ef7f917ec26eeU, 0xb4230820fc0a18fdU, 0xe5e70aedf3ed01f3U,
  0xead32afefc121cfdU, 0xf1e806020a10f705U, 0xebf5fbe9130811fdU, 0xf0fcfff512281affU,
  0xe007e1da31140105U, 0x10fae1151a16f908U, 0xeefee8ea354aff00U, 0xf907f00111400b03U,
  0xbe90dfb03e9f809U, 0xebf621f60fea12ffU, 0xd80a090633f31cd9U, 0x9d38c2fc39083ce4U,
  0xb939f1152c072ee0U, 0xee210af90edd08f4U, 0xc20cf6151012d710U, 0xbeebe5060b00f013U,
  0xaffede0216e517ddU, 0xbf2ef306122429f8U, 0xce160beef618010bU, 0xebf310e6e50d12f9U,
  0xe6d813f406db21ebU, 0xedf807f315231201U, 0xf80bffd80817fb04U, 0x202effc1a1c05fdU,
  0xee09f21d1e1004faU, 0xf70dea13211ff602U, 0xfafaf2f12d2d09fcU, 0xf802f60b1e2af80bU,
  0x1919fe0613edf804U, 0xc281101210a15f9U, 0xdc1bfa13271714ecU, 0xac0ed42e3d1c35efU,
  0xb91fe20825fd23ccU, 0xd404070811eb11f8U, 0xbafafe070feed51eU, 0xc0f7ed1311eaff06U,
  0xabe9da1421f327dcU, 0xb521fcf60b012eeeU, 0xcdfd14eb03e510f6U, 0xf1ee0e13ed0109ffU,
  0xeedc140dff0614fdU, 0xf9f30b16131c070bU, 0xe70afed81c0f0cf8U, 0xee15e4f4272615f5U,
  0xf710eb0f18250d00U, 0x20feeed1335fcfdU, 0xf6f9f7e72e19020cU, 0xfafffd112f2d0607U,
  0x250c00e3f7f7f60aU, 0xeb1602ed110a0aefU, 0xdd0c093317fa2200U, 0xbb23ce2333f331f8U,
  0xcc33dc05222127e8U, 0xe6140bfb0ce111e8U, 0xc8fafc050d15e61bU, 0xb9f0f4201113eb07U,
  0xc3f3e7060e002bd4U, 0xcb16ef05151827ecU, 0xcd14fd0f07e706f6U, 0xd7d711e4f31f0dfeU,
  0xe7d11bf1fde51b03U, 0xe4eb0efa0b3014f7U, 0xf3e0fcfe14fe13faU, 0xebf7ed091dff1f00U,
  0xf90af8dc1a130a04U, 0xf4f4f8f72240f105U, 0xeefdfaf32005ef06U, 0xf70cfd05152c0202U,
  0xfb2813f3fbf5f4ffU, 0xdf040a03061716d9U, 0xc70af71d171721f6U, 0xcd23c72f401e30fdU,
  0xdb35d91b291526daU, 0xecfc0c180ee20beeU, 0xe108f811ff0bca1eU, 0xcbd6ec2a0717e225U,
  0xc10ecc3a15f029e5U, 0xba1ff3e2071224d5U, 0xdf09100af00bfd02U, 0xf9f921ec00171407U,
  0xefee03edf41216ffU, 0xef0903ec070026f1U, 0xfafcf2021af90af6U, 0xedeef3060d2a14f4U,
  0xf516f0f228350104U, 0x814f7f31f27f80eU, 0xedf4ead828180309U, 0xff0704fc172dfd02U,
  0xf1ff1ff807fdf4f8U, 0x1707221b090a10f5U, 0xd413eff826db1ddfU, 0xca2acbf72f1a31eeU,
  0xd118d9f62f092be0U, 0xfd08fafe14e007f5U, 0xcefa000c01fcde25U, 0xc9e9ec040403f211U,
  0xcfebe72016f01cbcU, 0xdef3ed0614d82bc7U, 0xd30bfedd010a0301U, 0xf8dc0d0af724faf7U,
  0xe8ea19f70ae91107U, 0xfdd70402ff170a10U, 0xf106e90b1f0a12fcU, 0xf71deef422fe0bf5U,
  0xf40be90329190f05U, 0xf409f4e52931fb14U, 0xf9f4f4f2130ceafaU, 0xfc05faf7304cd70eU,
  0xef0e8140315eceeU, 0xfbf4ee0d0d100ae4U, 0xdd12ff281bff33d8U, 0xcf2bbe1d250532fcU,
  0xc811f1eb2bdf31d1U, 0xee1ff5120ff102eaU, 0xd8090206080fc525U, 0xcb02ea241bf5e50eU,
  0xd304e10911162abeU, 0xd11cf8040b0129dbU, 0xf9f802e5fe101605U, 0xfd000df9022c05feU,
  0xf0e0050308231ef3U, 0xf1e30ce710f11018U, 0xf3f0f815240cfefaU, 0xe4f2eddf280e0602U,
  0x20b01fb17090409U, 0x11faf119120efb07U, 0xf3f9fb061df8ea03U, 0x406fdfd1836e206U,
  0xdf0303f7f7e8f6edU, 0xe9e8130f02020cddU, 0xe212effe190404f3U, 0xe91fc70f290821e3U,
  0xda2de8ed151931fcU, 0xd006fafd07140deaU, 0xd2f8ea16fb01e112U, 0xef04e2210df1f212U,
  0xdfe2e00d1a1d23d5U, 0xba08ffd5fffb28ecU, 0xde24182c08f9f907U, 0xeaf11016f1f50b00U,
  0xe7f814e4eef70cf7U, 0xe919e71d22020f0bU, 0x51afe12260205f9U, 0xf61fffe61f081907U,
  0x2070113212208fcU, 0x61af9091d2fe007U, 0xd09eef43f0efe0aU, 0xf902fd09111c0611U,
  0x1e418dbfdfae909U, 0xf60109f0f1e202e6U, 0xeb0e08050aec2407U, 0xfc18c91b3b180be4U,
  0xf912e0f40ff329f0U, 0xf813f3141d220f0cU, 0xe2e6f40b14ffd315U, 0xe0faf4230825defaU,
  0xe1eacf0b14f20db7U, 0xeafcee0519231fbfU, 0xdbe3faf10af016f8U, 0xe913130afe17f1U,
  0xef110416f0e822e7U, 0xf6edf6ed1a081df0U, 0xf6f2ebee121c0c04U, 0xf0fd05f52b051ffbU,
  0xe60106092223fcf7U, 0xf6ff09fa1f2900f9U, 0x1f8fcf22930060bU, 0x30110002a06e30fU,
  0xeb0301f4f8fdeefeU, 0x1db07180b1803ecU, 0xf905f9041e1ef6eaU, 0xfdfada1024faf6eeU,
  0x207edf0220e0fd5U, 0x612141a0e1405U, 0xe812010700f4e409U, 0xf00901f8f30fd109U,
  0x7f4f30a12f00edbU, 0xe71ef61009eb1cd6U, 0x4d4fafc1121f2dbU, 0xf8131f01fb040ef8U,
  0xfefb07f717f011f2U, 0xea0a0b1018e110f9U, 0xf40cf90a10110ef5U, 0xfff8f6e519251504U,
  0x4ee110d242009f5U, 0x4001003060e0f02U, 0xb0e061a0507ee00U, 0xfb2208200c24df17U,
  0xf2fdee23ea0febfdU, 0xf002f11bfd0602f1U, 0xfbe008f71af014U, 0xf201f50103ec0ee8U,
  0xfbe5fd1614f218f5U, 0xf124e61dfa0f16f0U, 0xefeef9fdfd15e61cU, 0xfe0600e9f8f6e108U,
  0xd804f926f70106c8U, 0xdefeff121eed0aefU, 0xe911e8f602050d00U, 0xe2f911110b1bfff8U,
  0xe803ff22071b06e9U, 0x21ceff316141d1dU, 0x31809f10a2715eaU, 0xf60009f40a2e0bf1U,
  0xcf407f517f30d05U, 0xf11a12f50501f906U, 0x82915ea1619fd15U, 0x40617021d0cfc1fU,
  0xee0de1e2040e0ceeU, 0x2ec19dbedf0f607U, 0x5e711f3f11df5eeU, 0xec0d0808f40711U,
  0xff04091d14f5f7f4U, 0x1e0303f9e7180af5U, 0xcfa0fe80d04e7f6U, 0x10f1f5170c12fff1U,
  0xfcf903f80b02edfaU, 0xf09e40809d9fcf4U, 0x1dfbf8eff4000c11U, 0xf80be20cebeff408U,
  0xff08f112dbfbf7eaU, 0x170d04000b0927f6U, 0xe18f811f3f9f4e3U, 0xf6f5f4fff40a25f4U,
  0xf3f8f5faf4fb16e3U, 0xe5f7dfe3f00bf0feU, 0xfafae5f20c011216U, 0xf1001406f50d131cU,
  0xe6ee041d260feafeU, 0xe01b24fdee0405fbU, 0xfdeafdd92425010fU, 0x1501e4e2e70e10U,
  0x701f6e9f4ee21eaU, 0xfd06ebfc07f3f007U, 0x4e7fb050c0605f1U, 0xd8fef903fd090122U,
  0x160d111528e30115U, 0xfdfcd315eee600fdU, 0x2500ef1afc09f006U, 0xf702080eef07f1eaU,
  0xd15fa0109ee1518U, 0xc0d01f5e404091bU, 0x10af2fa02f3ebedU, 0xed05f302f6f1fbe6U,
  0xddf31e08e9f00ce9U, 0xf0eafe0df40c16f4U, 0xf90018f3f6d9e7f6U, 0x10204d412ff0bU,
  0xe5e31d0ae7db04feU, 0xe90f000ffe060cf0U, 0x15eafbf4dcf9000eU, 0xfb0a1d0b00f3fefaU,
  0xf80b1614e207ebfeU, 0x22fa18f8fbf9fa06U, 0xeb06120af0f9f907U, 0xffafe1f11f202faU,
  0xdf04de1412190ceeU, 0xf410e7fc2a082509U, 0xff1cf100eeed131aU, 0xf816fffc170ffe02U,
  0xe804e2f0e6e2fbdbU, 0x807fb1ef706f4f2U, 0xedf108f40501efeaU, 0x6f90714f3f0100bU,
  0xfef60404f6ff1a03U, 0xf9ed0de6f7fef717U, 0x1fd000a0fdeedfdU, 0xfe0104fde405e11cU,
  0xd211a16ffee01ffU, 0xe509040e181a0500U, 0x14f10d04f3001af2U, 0x251607edefe8f512U,
  0x1310240d03ecf7f9U, 0x190513ef0406e907U, 0xefee1b0004e9edebU, 0xccf8fafbeefded00U,
  0xfe12c416281210d4U, 0xe08ece7180d0e03U, 0xc33bde52ef029f2U, 0x181bdf0cfdf1fdf4U,
  0xc20ec05f30d1bebU, 0xec16f8f0dc011404U, 0xfb010bf2f41116f3U, 0x1206fc140be6110cU,
  0x90e17fcfb0e18f8U, 0x6ef17e9ef050bdbU, 0xf3edeb01eb17eaf7U, 0xf90f05fbeaf3f70bU,
  0xfb0619f7021105fdU, 0x112405f9ed0404f4U, 0xfff05faf3210f01U, 0x1efa1a0ef5f0111bU,
  0x1ffc20fdf30a0cd6U, 0xefa2b06f404fef2U, 0xebf5fa12f119c9fbU, 0xcd09ec03f2fdf8f4U,
  0xcf07b5fc0dfcfcdcU, 0xf926e3e930051e08U, 0xa3dcfe227e81802U, 0x91ff8fd1adc2202U,
  0xfa14d5dc02fb01e9U, 0xf00d0918fcfa0403U, 0xf8030ef2ecfaf018U, 0xde121201fdea1208U,
  0x50219eefbebe1f9U, 0xde524e4dd1416eaU, 0x2f0f8daf4f3fcd9U, 0xc0a0bf9030cf5e6U,
  0x2325fcf2070cfafdU, 0x15d9e811f8e70501U, 0x19f804efee00f412U, 0x21112915faf3f00aU,
  0x1806220fe3eef1edU, 0x3042b0ce50bee16U, 0xdaf310fa06e6f70aU, 0xbcfbe11208f804edU,
  0xda1dc7fb2ce913fdU, 0xe031b1062ffd2bd5U, 0xf72eddf626ed37e1U, 0xf438e7e815ed1de4U,
  0xf00fe9ea07f1e4edU, 0xf909fef7fff0fae4U, 0x21dfa0bdf01e4ecU, 0xffec2112ea13f917U,
  0x7e401e903e7f3dcU, 0x27fa19e5ef22daf2U, 0xfde5ff21f7f6e0fbU, 0xfa00fbf6ff0bfddeU,
  0x1c0ae01108f5fe06U, 0xefa1914f0e3fbe6U, 0x1afa0ae3e70be607U, 0x200719e5d01304e1U,
  0x14042ee3f31508f3U, 0xefc2beff301eb01U, 0xe9ed1706f809e713U, 0xbd0ceaf0170efae6U,
  0xc019b21c21f324fcU, 0xf03bad1b27fd23e9U, 0xdb15c72136f644e2U, 0xf523d50d19ea30caU,
  0xf11fe221f2f504e1U, 0xf30bfc14ffe9eff1U, 0xf30e09e9090e01feU, 0xf3f813070113efe5U,
  0x10fc1bed0b10eef4U, 0xfdf12826eaf50005U, 0x6ef0b00eefee1edU, 0xf9fafafdeafafad1U,
  0xfc000e0310f1f4faU, 0xdf00cf1fd06fdf6U, 0x20ef13f2c615e3d9U, 0x2d2119ffdff517e2U,
  0x16f11cf6cd14f4f3U, 0x20527e5fae7fc05U, 0xe1ff13ef1001ecfeU, 0xca0ae7fb1cfb0312U,
  0xb51cb1f439ea1df9U, 0xf224a60531fb12ebU, 0xe624c7083e1535cbU, 0xe732e2fd361234e8U,
  0xd41bea1710df1aeaU, 0xfa16fff1f21ae5daU, 0xf3f711030df90ee7U, 0xf2f30823edf1f3f3U,
  0xefd3108f3f6f5ecU, 0x6ee180ae9ffee07U, 0xfdb0defedf202e7U, 0xf203f6ed062019e1U,
  0xc151de8f8dd09f4U, 0xfcfff8e80b09f704U, 0x25fe07f2bedafdd7U, 0x350c19ece5fc2304U,
  0x210621d3e2f108ebU, 0x8fe2204f0fbfaeaU, 0xcef41404fdebca11U, 0xae17ddf01aeb0010U,
  0xd022b0212d0b1e01U, 0xeb2e942a330920feU, 0xda23b22f28da34bcU, 0xe029ed2030060fd9U,
  0xde11f9fb1903fae1U, 0xe526fef4ff00efdeU, 0xf4030b05f4fe14d9U, 0xef7f8fdfdfee7ddU,
  0xeea12f3f7f6e9f7U, 0xdeb17eaf61de209U, 0x10e909ffde18fde6U, 0xfdf200f10a1a0dffU,
  0x8fceaf104f50a03U, 0xe4e3fadd04f4fa04U, 0x1a0a13e9d20807d8U, 0x2e061ef0def9f5e9U,
  0x11fe23fde5f4eeeeU, 0xffd26f1dfeff71bU, 0xcaee061d070fe909U, 0xb60ada272422ff0cU,
  0xb210ae034003181aU, 0xda33813232f02dd3U, 0xe737b2ec3c071ed2U, 0xf026e8fb26102fdaU,
  0xe30dfe040b09f4e7U, 0xd80900ec08fc0ae7U, 0xd510fe1808fef1f6U, 0xfdea071007f5f7f4U,
  0x5f92ff8f10103e9U, 0xef1150be906fe01U, 0xed110eefdfc00fbU, 0x2f7f705fff0fcedU,
  0xf5ecede1ffe3f2f3U, 0xed1feaf6faf7fe00U, 0x2fe71ce7c4150edeU, 0x29122afcdc2a13e7U,
  0x10fd2d01d70314f9U, 0x7ee23ddf3e3d2feU, 0xd0030f0812f8fd26U, 0xc402dd122907100dU,
  0xa715aff0300f1cf9U, 0xdc2393fe43e919eaU, 0xc51cae0d401532d6U, 0xe22fe9042def1ae5U,
  0xd32bf4f510071ff7U, 0xd41afffb0eda08f5U, 0xe713fc220bebe9f2U, 0xfdf70f1a02f40cf4U,
  0xeaf5220af504fbdeU, 0x1dd32de7f307d204U, 0x14e00c06ff1f210fU, 0xfff007fff5def802U,
  0xf803f5fe0bfbfff6U, 0xd9fbf5f401000006U, 0x27f80ee1bc05f2cfU, 0x2a0623e4e6f83ad8U,
  0x150926f2ec180adcU, 0xfcf61ef2ebd4e320U, 0xd8f21af904f8cd13U, 0xb20ad82622000923U,
  0xa714a62739ea210fU, 0xce259608320618edU, 0xdb38bd09391138d4U, 0xda24e8ec1eea0adeU,
  0xe02a070713f80ff3U, 0xcc16fcfe1a0d11f9U, 0xf20cf7d71300e817U, 0xebed01eb100006fcU,
  0xf6f41ff70709ebf1U, 0x11e22402102bf300U, 0x22e917e0e5171713U, 0x2fffaf806090e0bU,
  0xf08ed09fadcf9feU, 0xe6e6f300f0ecec04U, 0x26ec08fcd3e4f9e1U, 0x310e2508df0f29e3U,
  0x190720d1e8fa09e5U, 0xf9fb2408f70bee0cU, 0xc6fe1bf11a00d22dU, 0xbc17ef0030071c11U,
  0xb019ad2932ff1e1dU, 0xd02681fb3a031af7U, 0xbc2da5eb3fdb3fd5U, 0xe12ae8ef21d917dbU,
  0xd814ffe513f41bfbU, 0xdc07f8dc0ce70af4U, 0xf107f502181c0904U, 0xfaf80be31306fef3U,
  0x7ea2bdf000efbf8U, 0xf5e316e60614f309U, 0x1ce0feed090cf61fU, 0xfbf8f5051c0e02f9U,
  0x1803df1008e5fbf9U, 0xdb00e50d060ded00U, 0x27e30ef5d9100deaU, 0x2e0d1fd3dd0503e0U,
  0x19f9200eed0423e2U, 0x3e41ce6edf0c700U, 0xccf713290efdd729U, 0xbe06ec152c0efe17U,
  0xb22cb5053eff33f1U, 0xbb1d9324340d1dffU, 0xd633ab033ede35dbU, 0xdc23ef0c20f823e4U,
  0xd01ff1061b020b04U, 0xd806f7fb131b0d06U, 0xd907fefb17f30908U, 0xeffa04dd1e0cfafaU,
  0xf1ea2de1152502f8U, 0xeeb17d900ffe20fU, 0x8ed10fa05fae009U, 0x6f0f2ff0e2c2807U,
  0xef7f315f8f7f9e4U, 0xd207ea1009060203U, 0x1edf0d03c7f21cd9U, 0x21f51ad8db222bf9U,
  0x210027ffe10901faU, 0xee6260b03ede517U, 0xd8eb0b2910f2ce30U, 0xcc19eefc25fa1819U,
  0xa432ad193cd921fcU, 0xce2c921b28181ff6U, 0xcd469ff02c1c34dfU, 0xdc2ae2f01eea0ddaU,
  0xdd1ff90d16ef0df9U, 0xd314fcf60afd0befU, 0xe511f9e51e220efdU, 0xfafd01f6071a1908U,
  0xfdd91ff218f7ff01U, 0xefef26060103ec02U, 0x15df05e307eff217U, 0xfff6fb0c08080c05U,
  0x118e0040107ffe0U, 0xe802defd08f8f2fcU, 0x27e202ddd6fdf7d3U, 0x240613fcce0830e2U,
  0x1f082f04f10121edU, 0x7e52a02eddce119U, 0xdafe0aec12f3de24U, 0xb81eef1622f7051dU,
  0xb61ca7f8360a0dfdU, 0xd12e9717280b26f7U, 0xc530b4f42af634d4U, 0xe42aebf50f0320e5U,
  0xe016e7ed1aed1af6U, 0xe11afa051a0e1408U, 0xe11d04f915e8060dU, 0xfefefafc28f21203U,
  0x3ef24ea120afff6U, 0xfae71cfd1efdeb0aU, 0x17f81818f728e411U, 0xfbf7fa0823230402U,
  0xfd051405111bfdf0U, 0xedfd01e705e9f9f5U, 0x29dc0005c8fd12dcU, 0x2e0a2afce21202daU,
  0x280832ecf1ed13e0U, 0x10d2307ecebe81eU, 0xd3e4170f0ff3ce2aU, 0xb304ec2b36f11802U,
  0xb92eb6073ef52807U, 0xbf3189ff22262df1U, 0xc827c61636e52acfU, 0xee3ce718150f12d8U,
  0xc724e8f2180d0ffdU, 0xda0c022119f01104U, 0xe7fa01eb2bf6030eU, 0xf6fdfbe12d0b0207U,
  0xfff221fa06f6fdeaU, 0xfff427fd01fbe200U, 0xfea18fc1f1b0615U, 0x5f9fc1326f1130eU,
  0xe6f8ff0500ebf8f3U, 0xd805e2fafadeeafbU, 0x2bf904ecd5dd05efU, 0x36ef1bdfe4fc10f3U,
  0x1bef2de4f00005f8U, 0x10ec24eff621e615U, 0xe2dc231305fbdf27U, 0xc612fb193ee8f908U,
  0xca1ab11c39f323faU, 0xd630a2121efd29e0U, 0xc63eb2fa2c002fc7U, 0xcd34f11b1e1f0cd9U,
  0xd930eef2100e07fcU, 0xdb0e1101fe051107U, 0xef07f1f128f01405U, 0xf0f3f7ff1c051c09U,
  0xffe126f30eecebfeU, 0xfafd25e81504f507U, 0x4e915f8120d040dU, 0x3f90c0e1b0cfb0dU,
  0xf8fa0b20f901fbe0U, 0xc80ae00f05edf7f8U, 0x1dea0306ea0808dbU, 0x2bec16cbec2416daU,
  0x2b192908ede704f8U, 0x3ce1d22ea16fe10U, 0xdcea1b19101ddb1bU, 0xe3f9ff002523030aU,
  0xac1fbc0f35122b02U, 0xc42098ff201e28eaU, 0xcf23b3031c1625caU, 0xd622fb181cfc14d6U,
  0xdb33eae9030603ecU, 0xe60a0aee010f24feU, 0xedf1f1f9261e0d04U, 0x30102f8260604ffU,
  0xfb22081ff506f6U, 0xff04230c0f10f308U, 0x3ea0ee61111f011U, 0x606ff0b3408100bU,
  0xe6f004ef060b00e4U, 0xd5fefe270aebe9fcU, 0x29f405f7cf1800d5U, 0x35fd2908e20214f3U,
  0x29fa20e8fdf430f5U, 0x8f11efef4f4effeU, 0xede918ec08e9cf11U, 0xcf23e50313eb0008U,
  0xc53ab10c3402260eU, 0xce37950520e018ddU, 0xd135ca2023ec2cc9U, 0xec31f40c07fd0ed3U,
  0xd606faf518f10302U, 0xf514060809061215U, 0xf50200fa27050f12U, 0xf50c01f52107100aU,
  0xf9f615f122ef0bfdU, 0xddf214fb13fada14U, 0xcee09f7fe09ef06U, 0xfeff03113205f213U,
  0xe7ff12e500e2faf5U, 0xd2ea021310e3e603U, 0x22f212eee0f5f6e8U, 0x16ed1be7d82520cdU,
  0x15ff390de4f11dd9U, 0x8d61af1e8e9f91eU, 0xe4e50af904ebc130U, 0xe6eaf2fb2f13fef4U,
  0xc317af012f242ff5U, 0xdc22ae1a26f00ecdU, 0xd448d4031b0934ddU, 0xd312f1f619fa24ccU,
  0xef0703ff000210fcU, 0xdb2109f4011a1a12U, 0xfb070a051eeef20dU, 0xf00c030516e9f60dU,
  0xf5f216e81ef60203U, 0xf8fe11e80d19eb0aU, 0xffe423f5201cfd0eU, 0x1fe011301f80e16U,
  0xd9191808f903f6U, 0xd112d81dfbeeebfcU, 0x18fa02ddf61b06dcU, 0x30e919f4e029fad5U,
  0xefe2af605fc26d7U, 0xde82f16f2e4fb10U, 0xf0f71902f4fcd513U, 0xe900ea1a25eefd0fU,
  0xcf29ba16430f26ebU, 0xc51ca2f22b1f11f9U, 0xe907d30021f920c0U, 0xe816fef902fb0bdcU,
  0xcf1807f31ffc0e12U, 0xd80a00090ce30b17U, 0xe018fbf31ceefc15U, 0xe802f10d15e21911U,
  0xfbf513f3140c0402U, 0xf91411f511ece40aU, 0x16ff15fd24fcf40cU, 0x31002080125d821U,
  0xee05eeff03efffecU, 0xe002f122f9f4f5fcU, 0x3f8ff05d9dbede1U, 0x20fd0a21e90efff4U,
  0x51514feda1115fdU, 0x8ed1c19e3dbf814U, 0xf8de13f6f00be704U, 0xe9fcf3fc0ce7ee10U,
  0xdc1ac72732f21efeU, 0xe9f0a60d2412fad3U, 0xcd1eaefa1cec1bdfU, 0xedfc10e3220614faU,
  0xed1c18e90ade0809U, 0xf81af6ed11181d13U, 0xfffd01eb1ed9fc20U, 0xf6e3f6031ff41503U,
  0xed0d0ff30cece50bU, 0xe0ed2106151de701U, 0x7fb090c0909ed11U, 0xfc03090ff60c0415U,
  0xff310ec0212030eU, 0xf9f8f1020005fafbU, 0x9f8f9f5fed7e90fU, 0xaf60802eafc0fcdU,
  0xe0718eff8f52cfaU, 0x13e91610f4eb080eU, 0xf5f01ede01ffe403U, 0xdd0cfff3080ce9f5U,
  0xfae3e5252e0e23eaU, 0xf5eec01e14180deeU, 0xec05d9f72fdc16c7U, 0xf50c14fdf91c15f2U,
  0xadcff060ad32022U, 0x4edf61f0af81324U, 0x20800120afefe17U, 0xc1dfe0517ed030dU,
  0x1bef0efc090e0902U, 0xf7f419ed22e6e308U, 0xa0e100af513f50aU, 0xfe0a02241913df18U,
  0xf5d70a0701200100U, 0xea11ff22fcd90cf8U, 0xf1c0b16fa1afad9U, 0x1ce504ed01f9fcf3U,
  0x516101801e90ddaU, 0x22f80a1304f5fd16U, 0xecf607f9f405e00aU, 0xd0f8f515090def11U,
  0xe404effc20ef1aebU, 0xe71befed161c0eebU, 0xcb09e5060b1304f0U, 0xf20cfa00f5f025f9U,
  0xfb080300f9f6030aU, 0xdf603e303f72012U, 0xe0b010e0410fe2aU, 0xe0815f40d0af20fU,
  0x120617171bf90401U, 0x1105090e0117ec07U, 0x100720eef32b0922U, 0x401151215fdf72eU,
  0xff17f0e5f0fa28f8U, 0x3e3101aff1d1c0eU, 0xf3fcf02cfcfef5f7U, 0xf7ea08fff72c0bdbU,
  0xf714e6fd0ceed511U, 0xf0f9f708100700ebU, 0xf204dd04141901efU, 0xf60ee31f16f4000bU,
  0xfb0ef716f92a02ddU, 0x1c1f22fbf1fe13efU, 0xff13ef25eed62503U, 0xfcfbe91200f2e203U,
  0xe50cfd1bf11011f6U, 0xa05e2faf1f5061cU, 0xf613f01505150bf2U, 0x105e71ef5f6e4efU,
  0xe507101414f1db0cU, 0xfc0a1b0c10fb28f4U, 0xf2f7f61119eb18fcU, 0xf4fb22040628dc0eU,
  0xe41eee051c0e120cU, 0xdbdadaf60dfc0407U, 0xf90904daf3e40101U, 0x170905020ce92ee6U,
  0x18f90b14e018eff1U, 0xf6f70e040e0a0e02U, 0xf1f2e30605f02bf6U, 0xf61327fd2af605ffU,
  0xee27fbea04fc080fU, 0x1605210d0416f113U, 0xc0b000cf302f71cU, 0xeee91d1215e62eedU,
  0xe9e5e6e2ffff20ffU, 0x180411f50330faffU, 0x21f9ed11f31e01f6U, 0x1f601fc031d05f9U,
  0xd12122ed7f90d16U, 0x12f9fc0808e31c1bU, 0x3f81d00ff0121U, 0xdfc0c01eee80716U,
  0xf4fcd9edfe11020aU, 0x803ed0ee4f0faeeU, 0xe7fef8eded1d0a25U, 0xfcf7f719fd020500U,
  0x1bcdf12400f4f7ebU, 0x18f4ede9f41d1c01U, 0xfdefe3e7e9f9ebf9U, 0xfc20f90a2bef152aU,
  0xf021e213f00309efU, 0x81c1ce3fd10ff24U, 0xea0d0df8ef04e10bU, 0xf50e10f515f0eae4U,
  0xf5f5dff1e616e6e1U, 0xf7f2e80101d513fbU, 0xfa07f7f600efe409U, 0xeafb08f31000e014U,
  0xf7eee70814e7f8f0U, 0xfd030d03f42e02d7U, 0x80505f7fefe0a21U, 0x1ff0e030730030cU,
  0x280af0051604ff09U, 0x1d00f1f8e1e10904U, 0xf4eee321190deef4U, 0x7ecf502e22817efU,
  0xbe0eff0e4eef81aU, 0x26dbe401e91801ecU, 0x1d02d22304f80c11U, 0xc24ccf80d1601e8U,
  0xf62ae1dd16e81ad6U, 0x319d6ea2a19f710U, 0x1f2beaecfa24f80aU, 0x190bfcf2130ce514U,
  0x1c09191ae1140addU, 0x10edf7eef7df03f1U, 0x4fff00a17050f07U, 0xfc0dfa14fff1f607U,
  0x80706280114ffe0U, 0xf9e508f00aeffcf2U, 0x2040306f3ed06fbU, 0xfd110308fc01f11cU,
  0x2050312ec0107fdU, 0xf3e9ccf4daf9f704U, 0x20df522e3d1e9e5U, 0x18f417fbda0004f4U,
  0x1ada0b02ee2cff19U, 0xe102e120fbfa0318U, 0xfdf2b10830290222U, 0xfd29c932fe0421dcU,
  0xfa2ad40505f701f3U, 0xd42dfd0b0c24eeffU, 0x90a0cf8fd22d4f5U, 0xc0f01fbf4f30f0fU,
  0xf2ee0ff4deff10f5U, 0x10f3130a11ef1aedU, 0x706f9ebfd1b0cf4U, 0xdc1f0cfd231cdb1cU,
  0x8efeb1c0cf40821U, 0xfbfff8f2f81a1307U, 0x1706ff0e09efde05U, 0xa070c0415021c02U,
  0xdef1b16f4fcfaffU, 0x150a1419e80ce8f8U, 0x1c060b07c01e0c10U, 0x25e33ce5c8eff82cU,
  0x2edf18e7dadcf3f9U, 0xfc07f6fef123e904U, 0xd800b3122c0a300eU, 0xf3479cf11e123118U,
  0xf33bb6182af51510U, 0xfd0fc9e71de31009U, 0x112001fcfc1ef609U, 0x23f3e506f109fe12U,
  0x1fe81c12e5feebfbU, 0xacd14f2e92f13d9U, 0x2410101301db02f9U, 0xafaecd51c15fe0dU,
  0xa09fafa0df8faf2U, 0x7f10f1b0aeaf9f5U, 0x50f220f000712U, 0x201f9fdeffb0206U,
  0xc1eedeedbf1f702U, 0x5fdee01c40dd8e7U, 0x34022c09d21b0508U, 0x3cdc30efbae2fa05U,
  0x14e5281dd0efdb01U, 0x13e4f60d000ef32bU, 0xd223b31936da1cfaU, 0xc538a1f9260827f4U,
  0xeb33c9f22a1e07feU, 0xe81df30b00f5fcf7U, 0x61504f30c01eaf1U, 0xfe0df4d2ea0ef2ffU,
  0x1cf01d11d8daf627U, 0x15db12faec07dd17U, 0xe1c0cf01323fcdcU, 0xf107f0f40104f801U,
  0x14e9faf3ee05fd12U, 0xf1fefd050f2402f8U, 0x40a05e5ff1df217U, 0xfdfbf2080febe8e8U,
  0x3ff1022de0bedfaU, 0x1ceaf8dbcdffccf6U, 0x3fe53ac89def2b03U, 0x3de93100bf0ae90bU,
  0x33cb1ef0d2ece816U, 0x5eeebfa000207feU, 0xf511a90f3cf61e07U, 0xe82f87fd3b1736dcU,
  0xe733cffe380e0dfeU, 0xe714dcfc18f7ec06U, 0xe70408f118ff01edU, 0x3f702fafcf0f704U,
  0x19de12d608f4d10dU, 0x21ea101fe90316e3U, 0x8f90ff412ddeb03U, 0xe410e3dff3f202f4U,
  0x1116130d01fd06ffU, 0xeefeec2efd22fc16U, 0x3fdf9f7f224d9f9U, 0xf909f9f320fde319U,
  0xdc13e811eef5fef6U, 0x5d0d0802ac08e001U, 0x41072cf5c9e3f20aU, 0x43eb3ff2b705f30dU,
  0x3ce822fad00cec1aU, 0x4f813f802020efeU, 0xd015ad0713fc35f9U, 0xe2468609400732d5U,
  0xf840c71f3cfd03deU, 0xee25f5e313dff6f8U, 0xf31ef20e032514fbU, 0xfe18f9f9d3f4f71cU,
  0x2c0209f8f51bee05U, 0x22f80a1ae3de090aU, 0xf8ff18fb0ae11104U, 0xff17e120f4faf6f5U,
  0xfc00ea021406ee02U, 0x40f0609e0fb0a04U, 0x40c0207ff190b03U, 0xfcf800f41df7f2f4U,
  0xf5e8e1ebf600ffU, 0x370122ddb9f0dff8U, 0x39fa42dacdff0219U, 0x46d43bcea41a0607U,
  0x32e924d3d2e6c60cU, 0x1f0903f805ff1dfcU, 0xda10a0063c1b29e2U, 0xf22c93fb350622daU,
  0xfe2dd12736fa0aeaU, 0x12ff3290819fadcU, 0xf221fe0f01ff0be3U, 0x709f6d3f9f7e90dU,
  0x30cf141af1eff905U, 0x1eef131af71b18ebU, 0xf2180e2010de07f8U, 0x11af0f7f8fbf609U,
  0xebfe0af308faf906U, 0xeefa0809ec29f20fU, 0x205fb03e1ec1e0cU, 0x5f9f912f2ededf8U,
  0xe7f91320da1bf909U, 0x6e1329f8ba21dcfbU, 0x550845d9a8fde201U, 0x38e538d09de5ee16U,
  0x36b833dcb2ebdd0bU, 0x1eff09f102120a05U, 0xd710b80b2d0f3be4U, 0xdc339f163aed26daU,
  0xe531c3eb2f2b13ddU, 0xb1de20937f3fcd0U, 0xfc1ffefded1ef7eeU, 0xffdede8f008fd0bU,
  0x34f005e3ef15081fU, 0x1bf018faf7ddefe8U, 0x16101d0800e7fefaU, 0xf810edfcebd7d704U,
  0x1820030d001adf01U, 0x4f809f2e4d9f708U, 0xff19fe1ff8160c0cU, 0x3fb02fb10fb0906U,
  0x11520f5ed17050fU, 0x67e8ffe1bd26ef04U, 0x4a083ae8b920ee04U, 0x4bdf37c8d41dc80eU,
  0x53c12fdfcc15cc00U, 0x5090008010021dfU, 0xf21aca2229f224e6U, 0xca2a81f6430922e7U,
  0xed2bd0e237d30defU, 0x1220fae31cd9f5e3U, 0xf226fed6fa0415efU, 0xfa05f8dade22de1aU,
  0x47ef19ffe606fc12U, 0x15e41bfaf0ebfcf4U, 0xd050a1e1107f902U, 0xf916ec15ea16fd07U,
  0x902120aeefff504U, 0x60216f104061307U, 0x10191227e6e11406U, 0xf80000eafe061b11U,
  0x20f9f4edd80cf815U, 0x6ffb1bceabf1c411U, 0x400528eeb501bd1dU, 0x56ee40f5b6fdb404U,
  0x4fc028feca00da0bU, 0xf0405df08e22d04U, 0xcf1fc7fe3bf82cd3U, 0xcd329beb401c2ddeU,
  0xe12dcb2f2c21fdf5U, 0x1324f70907d302e2U, 0xf329edcbec0f0f03U, 0xd01ec00ece3ed0eU,
  0x44eb1419da1de5feU, 0x3bee18f2f4fef1e7U, 0x101c0304f7190ceeU, 0x110515fdffe600U,
  0xff24f2ebe2daf212U, 0xc1500e9f4f607feU, 0x10de42df4f92416U, 0x4030201eacaebfaU,
  0xffb19e4e20bfd21U, 0x57261eddb307cdfdU, 0x3c0b2ae1c215ff16U, 0x3eed29cdca15bf19U,
  0x59b825f2de09e121U, 0x230f1202142a2dd1U, 0x633c2122cf234baU, 0xe53688014acd13dbU,
  0x43db016370e18dbU, 0x42cf0da181af1feU, 0x342e2ff05eef1f9U, 0x1408eb0fd10fde18U,
  0x38f40cd9fc00110aU, 0x34ea19e9fcf1f4edU, 0x8040cfafae812edU, 0xe20ae8010cddf005U,
  0x1f19f00afb08f703U, 0x140e0ae8e406fe15U, 0xf2170502db061b01U, 0xf9fafbe40f08f4U,
  0xf2f9d9ddd4300411U, 0x6fda06bfbb0ae708U, 0x400a30bfb322fffbU, 0x32e32ccebaedf51aU,
  0x40cf1e0ac7eec0fcU, 0x2ef200f90a0820dbU, 0xff1ec2f935e52ccdU, 0xc8378b13470f29e3U,
  0xf844af0532ff08f7U, 0x221ee010b29f5f1U, 0xfa26f3e7fd140406U, 0x17e8e0eddd15ed11U,
  0x40e00f08e2f7f003U, 0x2cd71c23f21cf8e8U, 0x5f412fe142608e5U, 0xff0aee2ae70706fcU,
  0xf4f10606d7f6f704U, 0xf5191409eaec120aU, 0xfe0cf0f5e1d2fb08U, 0xfafcfa0f15ec03U,
  0xe305f6dedd1d0f0aU, 0x52cb17c1c203d8fbU, 0x3a0a36b8d7dbfa01U, 0x25ef1f0ab905bc15U,
  0x41ea2be5df03d6f8U, 0x1e13180f0d0a14fcU, 0xe836d4042ef128c4U, 0xc93c9f1d44e314dfU,
  0xee2cae0736f1f6f5U, 0xa20e7fd05df04f5U, 0x27efe4e6f8f518U, 0x1ebeffcdbf9e629U,
  0x35fe05f2dee6f700U, 0x2ff71407f5faf0edU, 0x1e181904ec0fffe5U, 0xf4fee7d3062cdc03U,
  0xc00f520dbeb060aU, 0x100a0af5e22ef50aU, 0xd24f418e2eee301U, 0xedfaf7f61aeee204U,
  0x4f4f3f2ee1c000eU, 0x681416c3c005cd0bU, 0x3ef42fc3cbefd10fU, 0x2ffe37bbbed2a409U,
  0x41d52fdedaeab811U, 0x2c09090811162df8U, 0xe934ddf22a0931d1U, 0xde27a11b35f422d8U,
  0xe638c0e93af91001U, 0xed1ee9f409e11502U, 0x90afafbf9f7fa01U, 0x1404f0dfe126f01dU,
  0x3bdffdd9e311e50eU, 0x30fe21f7131b0dfaU, 0xf211fe01f8fee4U, 0xfc09f9fc0800e90eU,
  0xe0802febcf9f201U, 0x21e0a06eb0c15feU, 0xf8ffff0108fe0d17U, 0xf8fa04ff06eaef0aU,
  0xd0adc1dd2fc0910U, 0x69101ce0c828e408U, 0x2e1529bdacf8f702U, 0x40ed32d5be00c82bU,
  0x3ff228eaf403b618U, 0x312017f1060c1edbU, 0xf336e70b34e42ad1U, 0xec56b80d441421e5U,
  0xe224d21c280112feU, 0xf900e11209070400U, 0xfb19ecd9f0f1fa06U, 0xffff0e17e1e2d726U,
  0x31f0071ad4fce70bU, 0x1bed22f8f921eae4U, 0xd1108f305fc11eaU, 0x108fe07fce1030dU,
  0x17f5090ce9f8ee05U, 0xff1bf2e1fc110911U, 0xfe0e00fed901fd12U, 0xf5f8f4f805e30203U,
  0xff03ede8d5020709U, 0x43fbeec2c4d9d90fU, 0x27f42bb7c515d605U, 0x2a0831c4cf22c1fbU,
  0x4408180dea12be14U, 0x1cff1ad717d72ed4U, 0xf936e80922eb31beU, 0xd846aafa2f1722ddU,
  0xeb32d1de38e3181dU, 0x305daea07f916f9U, 0x10205d2de06e30dU, 0x11c509f4e82bdf29U,
  0x2de5f3fcf202f711U, 0xefe1706f91303e6U, 0x8ea0ae604f406e2U, 0xfaf10bf406f4f7faU,
  0x1306060be4ed0301U, 0x1518feefe0050a0cU, 0xfb08f50eff0d0a12U, 0xf9eefafadae6fdU,
  0xfb1717cfcd401210U, 0x46c311cacf00dd0eU, 0x32f438b9df24f706U, 0x3ff031dde017b424U,
  0x3ddc13fbe80aa32dU, 0x2503180122fe23f0U, 0x320e0f322ec2ebcU, 0xda3edc0620ef2bd7U,
  0xe41ae0df30110afeU, 0x8f5edeb0b19f7feU, 0xfafa13f7e514f017U, 0x11e1fb08ca0de815U,
  0x2c001824f3f7dd14U, 0x33061104fe10edfaU, 0xfe110122ebf114faU, 0xea201004ffeceb05U,
  0xfdf5e8dfe5df0c04U, 0xfd071a1ff31df803U, 0xf0127f7dfd604U, 0xfafafdf51818230aU,
  0x15ce15e4ed20f509U, 0x46fd0ab4d2f0d61aU, 0x2bef44bbbcfa0207U, 0x250120f5c009c124U,
  0x2cdc2af2fd0ada16U, 0x2d0c0dfa11162ae4U, 0xa33e1e229eb47beU, 0xea20c60c40cf29d2U,
  0xdf13d00b1f081af8U, 0x817ff000112fa11U, 0xa1bfedee0fcf90eU, 0xeaf1f312ddebe01bU,
  0x33db0417e4f2e7feU, 0x20ee19eff7e212fbU, 0xfb1b150df406f5e6U, 0xe40dfdd510eee4fbU,
  0xee000b02d4fafb00U, 0xf2906f9eee9eff7U, 0xf0f0fbe6e9fd0e00U, 0xf8e0fa10f2f700feU,
  0x1c20fc1fdc2afb09U, 0x4de70ee5c801c813U, 0x34122db9f214e5f1U, 0x38d924e8de0fd802U,
  0x37e9351af7fec438U, 0x13ef20f417021dc4U, 0xdd3cec20311343cfU, 0xc19d21840f82ed9U,
  0xdc3ef5fa1eef11f4U, 0xfbf7f81000230cfdU, 0xf40910f6e70bea16U, 0xfc04f426caebf121U,
  0x25ee14110517c307U, 0x20fe0e0ffbfb04e4U, 0xf0e13fdfa06fdf0U, 0xef33fd02fdf1ed08U,
  0x8eb02f6e20700fdU, 0x2000bedf5190b02U, 0x5e7060b00e30c0fU, 0xf8eef1f2e5fb0c12U,
  0x3fc03fed31c011bU, 0x30e90dd7d406f925U, 0x220646d7e80de701U, 0x23ef2814e7d9d80bU,
  0x41fe0df5cf1bc801U, 0x170b16fc33130fcdU, 0x323f3f1211630cbU, 0x12e3141f1125edU,
  0xd715f11e2b0516f6U, 0xf50ee6230502ee02U, 0x4f10223ec00f708U, 0x18e0051ce9f6e005U,
  0x27ff0807dc21f909U, 0x2f0b25290101efe0U, 0xd8241108f70404f5U, 0xeff8ebef04f7f0ffU,
  0x40bfedae50508fcU, 0x9fe1c11df04e3f4U, 0xf3fffaf6d7fc2b10U, 0xf9f900f10c1620ffU,
  0xdefd1ddef7f7f60dU, 0x24d61df1f5ecf928U, 0x29f72eced1f8d506U, 0x1d0d1fecf105ba41U,
  0x20e82906faf9d6f2U, 0x120b210414e812f2U, 0x1cfcf5132be723c6U, 0xd9f8f2fa34f71ff1U,
  0xedef04fa0d06040dU, 0xff01f607ee02fbf3U, 0xf908051cf5dde91eU, 0x1efffdffdc1e071eU,
  0x21fc23f5e31def14U, 0x13010ffa04f9f9dcU, 0xf3d91907fcf8f9e6U, 0xf5e30218f300fdffU,
  0x160c0901e0daf7f8U, 0x1ea040cf1e30bf4U, 0xf20cf3f9de12f5f7U, 0xea0fefd6f31120fbU,
  0xe3f3eafa130cfcf6U, 0x330c101c00e90defU, 0x20ea1c0ff20ce5eaU, 0x19200e260d0bdf1fU,
  0x1fe925f50012dbf3U, 0xede50901fd0cf8f7U, 0xecf60a211afa34b8U, 0xe802ffef2bde25d9U,
  0x3f10bee0308051aU, 0x103150400e8f61eU, 0xf4170fe8fc0ffc0dU, 0x16e92121ed1a0726U,
  0x4003fd1ee002d91aU, 0x130d11f019edf6f0U, 0xf31419cf011bfceeU, 0x10b12080108ecfeU,
  0xb17f5def4d3f002U, 0xf6e6e80ee3f1edf8U, 0xec26ebd700e4e40bU, 0xf814e00b0b01090eU,
  0x13e5eceb06f5f500U, 0xeff31d14ed04de31U, 0xf9f817f8022bd4ecU, 0x4f2e3120c2227f8U,
  0xe7f7f6e50e200028U, 0x8f8de0b16f4001bU, 0xeb0214f5e6200303U, 0x260ffc0102e4ecd5U,
  0xb22fef6011be7e9U, 0xf53016f8e6f52bfcU, 0x4ffd2f20c0de002U, 0x14fc0c050ee71c09U,
  0x31206f41d2b1202U, 0xfd011ce21507fe13U, 0x2c1bfa23ebd6efefU, 0xffe2018f4f6f9f2U,
  0xff000c02041ae5ebU, 0x1f070d150f0af3fbU, 0xff00f219feed33e4U, 0xf4ff1a03e71cd323U,
  0xf2e92afce1ed1320U, 0xaeae7fa0dcfde1cU, 0xd1fff10313190d0cU, 0x7ed180feb05e715U,
  0xaeaee13f1f9dd05U, 0xebe9ecf90bf30ae7U, 0xe701091e31241a01U, 0x2a26fafc1dce0d1eU,
  0xed34f2fd2803f301U, 0xef14200be2ea0b18U, 0xec02f1e2fbd2f011U, 0x1906252324e6f50cU,
  0xdc0e180b1fcef732U, 0x2af51bfa18f0e007U, 0xe25f9f1f4fbf8eaU, 0xf6fee4f808dff30aU,
  0xe50621f71ad1261bU, 0xfa08ff29dd1e02e0U, 0x1f09f41ef3cbe403U, 0xa00060628dedc20U,
  0xe3fe23dce624080dU, 0xe3052b1308e3160aU, 0xf3f812160204e110U, 0xfc93c11ed050511U,
  0xe3c6143502130aeaU, 0xe3f31d0efe1b34e4U, 0xe201eb1106e8e60fU, 0xfb37de192c170f09U,
  0x222aecf30ef6ce1fU, 0xed1e01dc1fd70210U, 0xf519f12fe3dc18ecU, 0xa000d1cecfbfee5U,
  0x13f5f73500eb143bU, 0xf0b0b0627ffdc12U, 0xf30efa220ef0e1fdU, 0x14f5f3d8f817fc0cU,
