/**
  ******************************************************************************
  * @file    micro_speech_quantized_data_params.c
  * @author  AST Embedded Analytics Research Platform
  * @date    2026-06-26T20:16:24+0800
  * @brief   AI Tool Automatic Code Generator for Embedded NN computing
  ******************************************************************************
  * Copyright (c) 2026 STMicroelectronics.
  * All rights reserved.
  *
  * This software is licensed under terms that can be found in the LICENSE file
  * in the root directory of this software component.
  * If no LICENSE file comes with this software, it is provided AS-IS.
  ******************************************************************************
  */

#include "micro_speech_quantized_data_params.h"


/**  Activations Section  ****************************************************/
ai_handle g_micro_speech_quantized_activations_table[1 + 2] = {
  AI_HANDLE_PTR(AI_MAGIC_MARKER),
  AI_HANDLE_PTR(NULL),
  AI_HANDLE_PTR(AI_MAGIC_MARKER),
};




/**  Weights Section  ********************************************************/
AI_ALIGNED(32)
const ai_u64 s_micro_speech_quantized_weights_array_u64[2086] = {
  0xa707c236095c1efaU, 0xcf2fdf48054f00ccU, 0xf84ded48e440e4b5U, 0x126eed4f0231d38cU,
  0x1f6fe35ee925ba81U, 0x166df53af115c290U, 0x286ef533f903c18eU, 0x1772ef26f10acd95U,
  0x105e0a1ef6eacf92U, 0xe93df704d6f3af9dU, 0x16dd9db7f2c9f7eeU, 0xaa2aee17c5cffdbaU,
  0x1fa74b8155a74968U, 0x8758bccc0f175117U, 0x46e2e1b7f4960024U, 0xadbfec43c2023c1dU,
  0x1409b2b9a73fb3c3U, 0x5ef403c9b50c3137U, 0x9f06db10e012bc32U, 0x3c84adeb9e36e801U,
  0xd5fdf11e18181f28U, 0xd2ede4f41709281eU, 0xd9edede91df61412U, 0xd8ecf4d31ff02e0fU,
  0xf3fbe0b1f5d219e9U, 0xa0df9b8f4b0fac0U, 0x2e36fed7f7bed9a6U, 0x575a0af404dddeacU,
  0x5a722a0408f1e8cbU, 0x367f1c240a07cee0U, 0xf1c307f734e306c4U, 0xfac208e95df044cbU,
  0xfac7faf130ca15b6U, 0x6c40bff78ef49b9U, 0x4990de569ec58acU, 0x28ee5e164e72495U,
  0x18b7e8e77fee35caU, 0xc9c0f8521604cdU, 0x17dda6f770f757d8U, 0xeecc9ccc2aca02e0U,
  0xc3d85e3b62f90deeU, 0xacbf382e64fafbd7U, 0x91922f1e45fb03ceU, 0xa299420a6aff1fd2U,
  0xc6824f116b0e29ceU, 0x8eb7220d382702f0U, 0xa7ccf3e81d19f8f5U, 0xb4d7d4d601e0e9d7U,
  0xb1d0b6a9a2db9bc3U, 0xd5d4a4c981cb8aafU, 0x54a0b22ea14edfeU, 0x1336f14b0045f23dU,
  0xf5dfd2fce200ed0eU, 0xc2aec896b0b8bdc7U, 0xcaa5a59bb59cb6b6U, 0x1415361540224d19U,
  0x26385b6976687f7fU, 0x3a314f3150246a51U, 0xe7b910b7edb9e9a6U, 0xcfb0d695d787bb9cU,
  0xfdf31e28ef28e9cfU, 0xf6f4162ef841f3d4U, 0xe5e6fa21fc4dfadfU, 0xe6dcf11ef95d01feU,
  0xd6c9de18e160fe15U, 0xdabfe411df670630U, 0xcbbfe215db780451U, 0xc8c0e21bdd7e0067U,
  0xc0d6ea34cc7ff763U, 0xcdf4f933cf6ee446U, 0x27282c39d62a830fU, 0xe802133fee49b629U,
  0xc5dbfb32015ed458U, 0xa2d7ea2cfe62eb68U, 0x97b6e510f65f016bU, 0x9b9ffdfef64d0777U,
  0xb28a06f7e8500a56U, 0xd28efdd0f5491344U, 0x1a0f8aaf1161c26U, 0x2da2e681c0ccf6d8U,
  0xa9fffffe8aU, 0xd0ffffffd0U, 0x600000052U, 0xfffffd4afffffb4fU,
  0x30708070afdf9ffU, 0x928e9f009d1f207U, 0xe13e3e8f0fa05dfU, 0x14ebe80feed3ef08U,
  0xfcebd5e81ffdedf7U, 0x1ff6ea0507f7f40eU, 0xf3d8dd030bdcdbf8U, 0x402e4fc09e1190fU,
  0x11fd061ef3eb04f1U, 0xf7f5020f1ff6fafcU, 0xe9f6f3f8f7df24ffU, 0x22f2e128f2dd03efU,
  0xeef9d4f0f9f709f4U, 0xcf6e211f3da14ffU, 0x170208e3e8f8ebf2U, 0xf90302e6270c0bf4U,
  0xeef10c1febf61814U, 0xfd17eefdfef008fcU, 0x31f00504defdef1cU, 0xf4faf5ed0ddc0bfaU,
  0x2f503151ed70c08U, 0xfd1fd6fe01edfbf4U, 0x16e2f9f106fa0efdU, 0x1af9df0d0d03f1e9U,
  0x9e0e2190afcf60eU, 0x1aefe1f106f1f015U, 0xfcf1061412fde808U, 0xf6fa091deaf7fbeaU,
  0xef516fcf8e7f208U, 0xf502d826030af908U, 0x2fbe2e41feff6f6U, 0x18fbedf200dee61bU,
  0x16eaf6f11d1a16e4U, 0xe2fee4f518fbde05U, 0x7fbee02e80c1c1bU, 0x3f1050dfae9f224U,
  0xfb04f9ff0619f6feU, 0x410e1e9f8f1ef15U, 0x1e00ef0bed1fe6fcU, 0x60808fd09f316e6U,
  0xceaf408fcdf2306U, 0x950f902f518e6f2U, 0x4ef1812050bda01U, 0xf4f916f6dcffd90eU,
  0xefed0afae6eaffecU, 0xedf526f12125f002U, 0xdffc11fa24eaea09U, 0xd6f5ff190c280af3U,
  0xe6f903fa062ae20eU, 0x3fcfee6faf923efU, 0x5ffe5e008f91a06U, 0x503051d0212e701U,
  0xe002f30ffcedee0bU, 0xdef2610ed02df15U, 0xf40911ebf6efee06U, 0xdd010b2a010f06f7U,
  0xfc07040317f1f4fcU, 0xfbf3030bfedefc22U, 0xfa0103041904250cU, 0xff090e150ef6f7fbU,
  0xf92205fb1efbfa06U, 0xeb0918dfed1df7feU, 0xf6dafbdfea1204efU, 0xe2d91ae1efef17dfU,
  0xf2e8eef61105fce2U, 0xfbe003ed042608e1U, 0xd3f22d04f6ee0ceeU, 0xd70b11fe0cf8e0f4U,
  0xc6f408070d0718fdU, 0xb021df40c1f0a0aU, 0xf20d0b17ff210e09U, 0xe5fa0603f80ad7edU,
  0xdaf41ae90f1403fdU, 0xebfd0d110609e601U, 0xdaf7170b00fa2316U, 0xd6fe050301fa1bd7U,
  0x3ed06f302eeee02U, 0xfb0b17050ff201ecU, 0xf50206ff1303050fU, 0xfdfc1700f02b18f4U,
  0x240824e1140e0b05U, 0xf4e712fb1221ebe6U, 0xf3d9f3f5ee180ee8U, 0xe3db14cf1e0cecdbU,
  0xfed01bdbfb0c02dcU, 0xe0cd0b00f52afef9U, 0xfe51cdaf8040ee2U, 0xf702f80615f7f4e8U,
  0xd1da01daf917fb0fU, 0x7fae4f116fd02f6U, 0xe1f023f2fdf30aeeU, 0xf10927ef1f121a0aU,
  0x9fe03f5fd23130cU, 0xf808250807f816fdU, 0xcc050907f5f10af6U, 0xdc0f111df91308f8U,
  0xdfa22f9f927f3eeU, 0xfbff1e0311fb13e2U, 0xe006000f0b0ef1edU, 0x9fff918fc13f315U,
  0xf4f906e2e5121ffaU, 0xf3eb0ddb040b1507U, 0x10d822d8eee506e6U, 0xf8c311d3f71cf9eaU,
  0x3d3fd07e60005deU, 0xd3cdebcf1413e0eaU, 0xd3ebfa0c0cf0f5deU, 0xd3fa10f4f908fdfbU,
  0xf1f8f8eff81111f4U, 0xedfbf40412f7e1fcU, 0xe2fd0efe1cfd0cefU, 0xe5ef1fe6fe020afeU,
  0xe30520e82716f8e6U, 0xfb16110dedeeeff1U, 0x21015ff0114fff3U, 0xe61613132928e5U,
  0x607050403fd26d2U, 0xe1020fe20d050ef1U, 0xeef73014fa1cf707U, 0x706041c063dfa00U,
  0x4eb0aeef6101a05U, 0xf4d6e8d5091ddfebU, 0xba6f8f2ea1d0ff0U, 0xe4aa24ee240809dcU,
  0x6cf0ce9e7ef15cbU, 0xded71407001112e3U, 0xdf80dfb040b0ff6U, 0xe9f4fcdd21f11bf6U,
  0xe1ce1e0306f7e8f8U, 0xe0041516f905f6eaU, 0xf3ef270a1c1ef714U, 0xe307f1f804eef30fU,
  0xf70727151c000b05U, 0xf5e11317fafa0bfaU, 0xfdf5fbd72f210cfbU, 0xfafc0bfd0e07f4d3U,
  0xfafd19fafa020ef5U, 0x12f831e40c2413fcU, 0x8fc1927291804f4U, 0x2054026fe07e311U,
  0xf4ea27f4ee0f0204U, 0xf6d205e70b2611f5U, 0xba16faf90bfaeaU, 0xf8c5f6e6f90b0dfbU,
  0xdcd13eded0f01f6U, 0xfab81d07ee1706daU, 0xd0dc0004eef2eae2U, 0xdbf00df1feecf5fbU,
  0xd6da0a0e03030df9U, 0xe8e81f1c1406f201U, 0x5f33df3f50cfd0eU, 0xf1093608181bfa10U,
  0xf0fff7f30122f9ebU, 0xee0315212901e90cU, 0xf0fa250615f71ae9U, 0xe9ce2ddc011ff1e4U,
  0x9e7300a2c060beaU, 0xdce73df92910f0f4U, 0x60a3a23273bf7e4U, 0xfa1c2b072cfd0eU,
  0x318fceb14ea11f9U, 0xe4dd12cf041216f1U, 0xf9a8fbf3e809f00eU, 0xe5ab05fd1d1efbeeU,
  0xdcb902f904fe01ffU, 0xeec71ef1eff105dfU, 0xe8ec10f800001ef7U, 0xae00904fff60f04U,
  0xe1d32b16f1f0e40eU, 0x1f5220bfef9ef0aU, 0x5f319170002f80aU, 0xf5faf212eeeefa21U,
  0x3f1fa28e4ee1205U, 0xf404210ffd181615U, 0xfbe836de13060ce5U, 0xf8ea1d0e12f6fde7U,
  0xcf71ce50719e8d4U, 0xd7ea1add090f05efU, 0xfe08102e1712f9f9U, 0xfeed3306fa1df514U,
  0xaf624e215f011f7U, 0xe5fd11dd1223fce2U, 0xfeae1bf1f615ff08U, 0xf8c515152d2c15e6U,
  0xf2a128fe0407e7eaU, 0xdbb422f4fff8f9e1U, 0xae3190ef3e62003U, 0xdef1f9d8e5f3eefaU,
  0xfed816e7f5f20506U, 0xe7dbfffa0eeeea07U, 0xe6fa1a09fd01ed03U, 0xf6f7131f01e91005U,
  0x100afeeddbff13fbU, 0xc0d26f504f52909U, 0xf5de2ef402fa16f9U, 0xea07230b02fb1de1U,
  0xf1e71e0f0af30ad9U, 0xacc240dfff60bd7U, 0x1af429111214daeeU, 0xfff41b0cecfa0befU,
  0xf8f904d4100feff5U, 0x17f327d30521f9ecU, 0x2ac0aedf915f6ffU, 0xe6b803062904fbfdU,
  0xdcab1bf61b0917d5U, 0xedbb37090906fddfU, 0xfbec0105dde2d719U, 0xeb041703f0eb0ee4U,
  0xecb160ce7ebee09U, 0xebde192bf8e1d817U, 0xf0e70eeef8fff210U, 0x14f90d06dff80815U,
  0xff202315fd040bfaU, 0x20a15fef10c1dfdU, 0x5dd1efb04fbfeedU, 0xf2dc32fdf6f916e0U,
  0xf0e22517ecf408d3U, 0x11012d13fe0df1eeU, 0x7141132fb07e4d4U, 0xfc011d2beb1002d7U,
  0xf00020db1a13f0f3U, 0xf0c2e3d4031605f0U, 0xeaab1fec0a1e0206U, 0xeb31b032220e3faU,
  0xdaa710e3271df3e3U, 0xfb2fb040a0a00f3U, 0xf6db1e13ff07f50cU, 0xeceb18fbe7e8eff9U,
  0xfae1040bf0f1da09U, 0xcd7290b01ee251cU, 0xfbf1fc1cfdef0b04U, 0xd70c3817eddf0f0bU,
  0x1a18fbfbfc01fdffU, 0x90620faf4f9e318U, 0x1cf51dfaf81d0811U, 0xcc833e40703fef5U,
  0xf0d32c10e5ff13e1U, 0x13e016f1010704edU, 0x11619fa0711faU, 0xf405231dec002607U,
  0x90cf0ee1d2c1707U, 0xfece1ef30b241ae3U, 0x3c323f61a2112feU, 0xffbf08f42a1a10f4U,
  0xccf81a1d0bf404U, 0xefbd19f4fdf413f7U, 0xe7e91312fc020d0cU, 0xd4ce2e1af6fafaf5U,
  0xe7cc1026fcfd1201U, 0xe00eaefffee13eeU, 0xf3e60c040c04171aU, 0x161122f404dddbf6U,
  0x20307f2f8ec07f3U, 0x6111b1d02f60af5U, 0xce1df3ea0206f8U, 0xf0c722ecf6eff9edU,
  0xf0e8071102e0dbedU, 0xedd42e0cfdffedd1U, 0xfe0e0e0107f10eecU, 0x7132e1f0a0a0bdaU,
  0x1ef0fce921140700U, 0xecd40cc60734ead7U, 0xffaf15f30a2406fdU, 0x13ba18e93e0df1e9U,
  0x13af0e05310bd7edU, 0xd5cb140202100ed6U, 0xebd5241f0ef90cf9U, 0xd7f407080cf5f1ffU,
  0xf1ee2ffcefe81006U, 0x12d3211102f4f818U, 0xf2ca240502f4e414U, 0xdeb1a16f8e7ebf3U,
  0x1e091c11ecf11605U, 0x2eea2a0d0efae6e0U, 0xd6dd050916f7f9edU, 0x4ed3be4f3f5eb02U,
  0x18dc35fd09fd0ee0U, 0xe1e5341505fa04f3U, 0x8043208f9e0f4e4U, 0x2062f0908ff0ff4U,
  0xcf51ee3240c05fdU, 0xf4ef14d82018f8ddU, 0xf5b0060414250817U, 0xf5b328ff3e0f09f5U,
  0xe5b7f7d92114d819U, 0xf9c515041e07e7feU, 0xce180101eb2014U, 0xf3d30df3fbf7e2e6U,
  0xefb525f103f0f804U, 0x1d11604f601e005U, 0xaf0010e0501210aU, 0xde0b03faf80300f3U,
  0xe8f50209eafbfffeU, 0xfa130ff8f50008e7U, 0xfae616081ffbe8ebU, 0x1de526f1dd0300e1U,
  0xe5ea33fff8f2ffd9U, 0x1ee10ff8f9070c03U, 0x5092106f1000fddU, 0xf9f1320704e6ecf3U,
  0xf40ae2d21f1801f2U, 0xfcf210c21628fccaU, 0x7a9f5fa0f2ae908U, 0xe9a61c0b4319e9ecU,
  0xe19a11fc2b0d16f4U, 0xd9c018e40ff51cf1U, 0xfbec170af8e62614U, 0xebd41efef2df22e1U,
  0xd4e6fceff6080ed7U, 0xfbd72501f5fb0bf7U, 0xeefe321df3fffe0dU, 0x1ef1002ec0cf212U,
  0xdfb25faf7f30bf2U, 0x2912210cfc041511U, 0xe2ea2206f5f6fa00U, 0xe4d31d0bf0fd00eeU,
  0xeded2ceae8fc0ae4U, 0xdad815fd05f2e8efU, 0xf0f20efe00faeecaU, 0x5ee2b1d0304f50eU,
  0xdf1004e23513100fU, 0xf9f303e42640ebcfU, 0xe5abfedf2a2414f5U, 0x1acffdb35271cfeU,
  0xf5a81f111a19fcf6U, 0xa2f2f71f1a0f02U, 0xd5d9090013e42215U, 0xe0fbffe7f8fd1902U,
  0xdfb019f3f3eef7efU, 0xfec1715f3080f00U, 0x8e6171008021411U, 0x5100729f7ed00f7U,
  0xf0f915f9f4ede705U, 0xef6282109030008U, 0xf5f00c0ff703f3fbU, 0xfbe71c09f2f8d8e3U,
  0xdaf642f1f8faf6e4U, 0xada2c2ffffad7ddU, 0xeeeb1dfb14f1ecdeU, 0x6f0350eedf3ebf2U,
  0xf1307e2232f0419U, 0xedcb1ad92e22f0e9U, 0xd69607f61e2704fdU, 0xfc92fbd2561811d8U,
  0xf8a204e52c170a0bU, 0xe5a211eb0d1a04e2U, 0xe9ca0317f702f8e5U, 0x8dd1218f5fe1f0cU,
  0xe1e21de1f6fcff15U, 0x1d223f2ff03fcfeU, 0x3ef07f2f4f3dd13U, 0xeae8f309f8d82115U,
  0x19f21a04f008f2e8U, 0x1ee5301dfc151bfbU, 0xee12af709e9e809U, 0xf2df01fbfff32100U,
  0xe4dd0b0bf0fcf4feU, 0xe601390bfef714d2U, 0x4e22c04e4fa27e4U, 0xf6f510f003f207f5U,
  0x9e411f81b2216fcU, 0xeeea04cf1e41f0f6U, 0xefbaf1c72f1bf60eU, 0xe6901e05391e160fU,
  0xe3a523e33f22fa0dU, 0x599110227050fe9U, 0xf7d326ff010305faU, 0xddd223eff405f9f7U,
  0xd7bd0403fffa0805U, 0xeaea05e506ef0614U, 0xfbe7ff08000dfd02U, 0xfff302f9ecfe13feU,
  0xafa1d19ed0408ffU, 0xbec1c25ec0ff20dU, 0xe2e80908f601ff01U, 0xe1bd2ef0e9e523ecU,
  0xe3dc1df5f6e914efU, 0x5f224fef2f9fcd7U, 0xfef02dfaf9e9edd5U, 0x10011406f7e8f2eeU,
  0x1cf21dc20e0ef306U, 0x3de0cb82153e3edU, 0xeea3f6df3946eb15U, 0x79f27dd5033e0f6U,
  0x7b71fed351fe213U, 0xecc120f42817ed11U, 0xdbf71be0fa0216efU, 0xe7e225e7fbe70afdU,
  0xe4c90602e9eef0f8U, 0xe2ddfdf8f7e2e314U, 0x1e716f505e40a08U, 0xcfe19f6f0e71c00U,
  0x19e3fe0be80306f2U, 0xebf02100fd101a08U, 0x5db18f004f30218U, 0xe6af1523e9edde01U,
  0xfdd81801eae60af1U, 0xfccc1e0ef5ece6f1U, 0x14f9300011e900e7U, 0xf2f42ff7f7dd19f4U,
  0x14e92fbc1c1527ffU, 0x18e41de83044e8f5U, 0xe09629f32b0c0011U, 0xdf9813dc553eee06U,
  0x7a309e83317fef0U, 0xb5fedd371d0eefU, 0xfdbc19fdfdeae0f7U, 0xe3bf20d5f301fe15U,
  0xf0cc14f2f6f00e15U, 0xd8d2020bfff204f7U, 0xdcf0fb0002e5fcfaU, 0xdbe918000102101eU,
  0x16000aef03fcf61eU, 0xfae20bfa16f40f00U, 0xbdd0e2102fb07e0U, 0xf2d40919fbebf0eaU,
  0x6ea2f1aeb000befU, 0xddea1dfefbf8f603U, 0xfcf418fee7fbfdedU, 0xff0728fb0bfcf60bU,
  0xe60522cf21031e07U, 0xafb14e72e43e7eaU, 0xd19efdd5242cfe1eU, 0xe1acf30151321cf2U,
  0xdba70ff1371ce5f4U, 0xc5c910e1180ff600U, 0xffc202f6fdf2ebe8U, 0xe7d422020f031900U,
  0xd2dc0b091ae50f07U, 0xad014dcf8ee0500U, 0x5de06f304ebfa0aU, 0x11d714fdece3fdfbU,
  0xd722deec06e60eU, 0xbea05010df5f503U, 0xdfd212f313ff0416U, 0xd6d32d08f606e40bU,
  0xf4df01feffec0ae7U, 0xffca13f7f9fe1cdfU, 0xf3d70806f7e90603U, 0xfb15110cfde308edU,
  0xec080de740280815U, 0x2f116c8466716e8U, 0xe7ae12d6433a0024U, 0xefb20ce4653af8f4U,
  0xe1c411f85929e81fU, 0xfbbb1ec94327fafeU, 0xf0cd13f10d1513f3U, 0xf0bfebd800071907U,
  0xdfc1020116eff6fcU, 0xccd708f10606e9fdU, 0xde21af214fc0efbU, 0xf5eb13e6100709ebU,
  0xe3d217f9feeb1415U, 0xe7de0ef10a04f51eU, 0xe9e5f9dcfc0c2001U, 0xd2af25ecfe0a1dffU,
  0xd9cd1ee817fc1601U, 0xfbe533ff08ebf1e2U, 0xffee1ffdf7fe04ebU, 0xf50a2bfdffe0f8edU,
  0xeef2f6163ff31d15U, 0xfcbc1a0a56f0eff4U, 0xe8c60e1e56f0fb2fU, 0xc9b8f93e62110b06U,
  0xe9c5fd2c6302ebedU, 0xe0cc20fe370f1700U, 0xeedffd0a20e60ee0U, 0xedd206fb1fee020bU,
  0xd80014fd12fcebfeU, 0xd90010f917ecf608U, 0xebee03f40feef118U, 0xff4000406f2eff0U,
  0x30301fd0bf70609U, 0xddf1ef1c14ddf6f4U, 0xe7d202ef15d913f7U, 0xbaf511f209e20505U,
  0xefe6100601e004f0U, 0xfe32f1bf4f912fcU, 0x6000cf7110bf6d7U, 0x1af6090a0306ef18U,
  0xdee5f4432cfeed0dU, 0x24e6d4495a2502f5U, 0xe4f9f05d5c0ef71eU, 0xdbfaec5b7f28eb1cU,
  0xe6ede1514920f50cU, 0xe4e105353328260eU, 0xeded041839f9fc1fU, 0xf9e7030908e6e701U,
  0xefda1a1208ec060eU, 0xd712001c1ee2f9dfU, 0xe0de19131721f701U, 0xe8f00c061b0116ecU,
  0xf303fa090e060318U, 0xdaf6f42a0afb01ddU, 0xdf05e91912e9fee9U, 0xcbcde10c10f2eb00U,
  0xdee8fbfa0cd91ff2U, 0x17e6021100e5fc00U, 0x2410e100fdf20014U, 0xc0318091eedec12U,
  0x29d618100f15f404U, 0x4c70c0fef1c0410U, 0xcbfe15e3f5ffebfeU, 0xf9ebe4fb12ff10U,
  0x1f902011314f102U, 0xe19011e0af50c06U, 0xdbfbf2ffff0af505U, 0xf40e0df7f21706f8U,
  0x1608fde0db14f7faU, 0xfb09072709fc16f7U, 0x10ffeedbe40cfc0aU, 0x19f4f323f4fa09f3U,
  0xeced110f19fffaffU, 0x6f70bfff3100ff8U, 0xe080a18e4070e0bU, 0xfefef30219050a02U,
  0xf9e2f905fafc0f0bU, 0x1fe12fc070ff71bU, 0x4f207fdf404f0fdU, 0xeff60eed0cef0704U,
  0x15da20f3e9040708U, 0x8e9fff6e0ecfff8U, 0xf5e808e9fcf01001U, 0xf509fc03e617e5f8U,
  0x7f5f8f605fff2ddU, 0xf20fe113f304f1fcU, 0xe61b11e01cfdf90aU, 0xfe0910230c0505efU,
  0x3ff1d11fcf11af7U, 0x5160d0c1107e603U, 0xe809061010f32505U, 0xfbf724ff09eef01aU,
  0x4f2000308fa06e6U, 0x1d1421031c14ebf0U, 0x1300ff0902f603feU, 0xf6f11c1d0b1e10efU,
  0xfcf713ff0114fde7U, 0xf1090e07ebe32100U, 0xfbfffd19ee03fdf8U, 0x4040af007fbeaffU,
  0xe5f6ffe00bfe120bU, 0xdbdd0315fded11fcU, 0xe5fbfaff0efffe04U, 0xf4fee80f22fef6efU,
  0x14f1cfdf0a03d9fdU, 0xf80ffbfbf3fbfd05U, 0xfb130505f7030905U, 0xddfe00fb18e723ebU,
  0xf101ef1ae8d3eae9U, 0xec0319dafcd81d09U, 0xf70b13f40aedf3e5U, 0xdfffee3eaf9000cU,
  0xe00e9eb17d71b0aU, 0x7f5f00709ef24eeU, 0x2fcf7061710f5f5U, 0x101f3260ae7f9fbU,
  0x1cfdeef827020b09U, 0x2eae00dfc0ff2f8U, 0xfe0410fe08e0000bU, 0x109ed0e0c0113ebU,
  0xeff314d1df10e30cU, 0xf6f411e5eef009U, 0x1602f7eafc0a20e8U, 0xf8efe604e40df3e7U,
  0x5010101e002230fU, 0x4ffe1f5f50df5U, 0xff0bf7eff1ee0df4U, 0xf21213f3e705ec1bU,
  0xdb1213fe06eafcf3U, 0xfc1de81c0dfce211U, 0x181cf6da1d13e2f2U, 0xffff0fdc03faf41eU,
  0x10f402f8f1ed0b18U, 0x1b02010f0e0bebf9U, 0x11f60d23e7001006U, 0x101f713050ff508U,
  0x11e90129f0f9f60cU, 0xe09100e16ebfa02U, 0x600e301d3e30a1cU, 0x2fcf312ef19e9e2U,
  0xe9f9f6fded0d0c0bU, 0xf80003ec03fe28f2U, 0x29fde71a07250ddeU, 0x2206080cdefbf7d8U,
  0x7fefbf007051deeU, 0xeb00f1fc01e904f1U, 0x1fceb04feec08e3U, 0xdc16e312f8df0ef6U,
  0xf70710e506e60a21U, 0xf223ed1607e3de1eU, 0x20efee8f9e90d12U, 0x1b0cfefbecea0a18U,
  0x27040ce507fa2019U, 0x39fe0a0a0dfee6dbU, 0x2c0a0509ec05deddU, 0x3c0fee24d31f02f4U,
  0x19f3f512f8f8fdf5U, 0xf09f40a0af6daf9U, 0xf305f8f3010100fcU, 0xcfce1fafd0e190cU,
  0xf908e4cc061bfb03U, 0x120de8170006e910U, 0x3319f621e423f5caU, 0x34000714010cfaddU,
  0x2406e407010705daU, 0x603f4fc09f0ff02U, 0x2fc0cfa1de208eeU, 0xc12180ae2f0e503U,
  0x92a01e420ed201eU, 0xf22bfdddf4d00e0dU, 0xef15f9fcf7f80c08U, 0x30f301e2ff011c19U,
  0x16fa001ce815fb0eU, 0x13020ef005fbeaefU, 0x24090729e50301f4U, 0x40f5f42ddef8e3f9U,
  0x320b0a0fef07dfedU, 0x19fdfcf6e600e80dU, 0x2fbf1ea03f30911U, 0xc06ec09feff06fdU,
  0x1edf7e3d706f915U, 0xd37e00e0114fd03U, 0x3a050d12ea2f18d2U, 0x36f91121f21e07d5U,
  0xf06f6fbf612f5d3U, 0xf30bffdf0906f9deU, 0xfc1202f2eaf101f5U, 0xf21ef00ebf8ee0eU,
  0xf926f2ef1eebef09U, 0xff1d100cf0f1f117U, 0x31b14fbf603061dU, 0x2b01f8fa03ecfd22U,
  0x20f0ff0709091b1eU, 0x29d911f8f6fb14eeU, 0x30f2f920ef07faf4U, 0x3603fe0dd6f3f0eeU,
  0x1f05f004e601d7f5U, 0x3704f21ff8ffdd0fU, 0xdfbe110f8fd00faU, 0x807fe08fee2f6edU,
  0xea04f5f8f00a1108U, 0x2840100f0d061208U, 0x3d1b091d083ffbc0U, 0x4c11fc201329f4eeU,
  0x220aebec051502dbU, 0xf30aead4010200e7U, 0x6190d01faf5f8e3U, 0xf1bf1f1f5021324U,
  0xfc2902e7f9e30419U, 0xfd1d22dc04e9ec29U, 0x191b14f5e8ec011fU, 0x15fc06f90d020e06U,
  0x1be81a18e10cfa07U, 0x14f905fc180aefe9U, 0x2cf0fd07ff0104dcU, 0x35e8051ae70eecf2U,
  0x400dfafe07f90913U, 0x23fc110104f4ea0cU, 0x907e7eb04e9f4ebU, 0xff02fa02fdf6f1fbU,
  0xe310e91af1f1ff00U, 0x102b0a1b04080c0bU, 0x4919ec04061f01e1U, 0x310702200c22f8eeU,
  0x2613eafdf00fffe7U, 0x815fee9eefffaceU, 0xb07f8ddfa0d0504U, 0x101de6d9f9ecef33U,
  0xfb1d14e311dff641U, 0x1605f609dc152bU, 0x80816f7fce4271cU, 0xb0b0ee9faf8dd2fU,
  0x11eb0319fd021202U, 0x1cef0d12150909f4U, 0x2fea04090c17fee4U, 0x2e00e3fefb021ef2U,
  0x2d070c27050cf904U, 0x3611df1cf9fb0bf7U, 0xfb05070bf802f205U, 0xfdf509fbfa130efcU,
  0xa1afd1803f91506U, 0x274ffe1e00fbe203U, 0x5f07ec1bf031f7e1U, 0x3c0c24170540f8e2U,
  0x36f9f30bf81310f3U, 0xebfcf8efe8f4f3e1U, 0x110c06dbeef0fbe3U, 0xf340debe9e2101eU,
  0x21d05ec08efd943U, 0x722f9e6f7f4ef33U, 0x2024fcf002e90604U, 0x1ffcf6050fe61724U,
  0xfaf01dffe70d01f2U, 0x11f3f9230eff00d0U, 0x26fb0b0b04050ddeU, 0x3c0be816e8ff0d0dU,
  0x40fff3faff04e418U, 0x3f13f7000dfc06eeU, 0x19f213f9080613f7U, 0xfdf607fce6f3f9fdU,
  0xffe7ff190100220aU, 0x828e71ffd03fd08U, 0x521efe0cf643f3deU, 0x38040d08f21704f2U,
  0x24010fdfef100cdeU, 0xe12f6d4fd0de1deU, 0xf318fffdf3f001edU, 0x2737efe8eff6da36U,
  0xb32f3e5fff4f84eU, 0xfe2113e2f6e90836U, 0x30f05f8fbdded12U, 0xfc030e23f2fc041cU,
  0xfdf5031b01f718f9U, 0x13e70211fc19f3deU, 0x2702022805f2d8deU, 0x40190e2707ff0807U,
  0x470f070df60c02fbU, 0x32071e03fd0e05f8U, 0xff0a02010124f6e7U, 0xfa031304f01526f6U,
  0xf6eae62a09f1f6feU, 0x623eb15ffeb1317U, 0x2a12e7f4eb33f6c8U, 0x40171516fa32e6e3U,
  0x110c0cf6f31a08f1U, 0xf9f8f4eaee0222d0U, 0xfd0e0af1f5171013U, 0x1f34f2dbe2f1da32U,
  0x41df2f6f2e4fc53U, 0x41a01df06eeec4aU, 0xefdd9fde6fc27U, 0xf0efcf703f3160cU,
  0xf5ed020804060609U, 0x13ea18030607e6e4U, 0x3c03ec02f210fae2U, 0x2415f809100af6f6U,
  0x1a00ff0001090dfdU, 0x4616051d0308eef0U, 0x1ff09090008f8e6U, 0xf1031b05ecfc20fcU,
  0x5f2f51c24fae412U, 0x1031ea2002fae711U, 0x3f2009ffee33d8cfU, 0x391ef23aee290ae2U,
  0xf0de2eff2fe1e02U, 0xe4feffece70219f1U, 0x1a07f4f1f602fbfeU, 0x222f4daf906f92aU,
  0xa25f6f3fcf30a4fU, 0xf72805e609f70128U, 0xa0f05ee13eef21eU, 0x150f12050ee8e809U,
  0xfff805f702f8ec02U, 0x19ec1712000100dcU, 0x25070b1df3fa09faU, 0x33fef704faf50ceaU,
  0x3a0000f004ef14feU, 0x23ff00e40110faeaU, 0x80d1404101526e9U, 0xfa062100fb10fdf8U,
  0xdd8f02809f1080fU, 0xfb0e0312fb020908U, 0x351ff609e539f0ceU, 0x3ef60c17ef251cddU,
  0x1ffdfcd7ff0821f0U, 0xf612e9f5e91218e5U, 0x80903fd0af41302U, 0x292b00d7fdee072fU,
  0x1247f7e1f1dedb3bU, 0xea2b17ef09e40c35U, 0xa1103ef18e8f82dU, 0x1803070c07e8ff10U,
  0xf9e91806f8f80805U, 0x1cf00104180d0fe0U, 0x34020c0c12fd14f6U, 0x2a00fdf9f9fde6f6U,
  0x34f51bfe0afff9fcU, 0x25f71be71315f9dcU, 0x40f17f00a0809fdU, 0xf5fc02f50706e9f4U,
  0xf05033807f1ee09U, 0x734f821ffed0f16U, 0x4218210c0027f9d1U, 0x3b0ef12ff11a02e6U,
  0x1803f9feea08f8eeU, 0x2091001eb0df8f5U, 0x90806f20bf1fb15U, 0x171f06e4fe02192fU,
  0x162604ef02e2f249U, 0x128f9fd0af1083fU, 0xf72002dc10f90b15U, 0x1c12f5f10309e616U,
  0x15f6160afa082afbU, 0x12f6f90efd1106f0U, 0x3008fa0b1ffdf3edU, 0x2207ff10eb0bfff8U,
  0x26fcf8f60309070dU, 0x38ef0a030211eef8U, 0xf30506fe091b13feU, 0xf1ec15e700fcdf04U,
  0x915f30e05edfcf8U, 0x1331e22400fd0d01U, 0x331d0803e82b1bd5U, 0x3307fa20e424fddcU,
  0x13faf7eff5061201U, 0x9ff0dfde0eeec01U, 0xeff0eea07ed00f6U, 0xff30fee7e7f0fc26U,
  0xe23f8f5f4060424U, 0xfe23fbe804fdf23dU, 0xfa0efbdcfd01e133U, 0x302108fffa11fb22U,
  0xdec0ff803f20313U, 0x1ef9f60f10100fefU, 0x1500ff09fa08e5f7U, 0x28150efbfe080002U,
  0x11f605fb0613fbfaU, 0xfe900e115060bf6U, 0xf2ff0f0bfd181de1U, 0xf8e2fef4ff14fdf5U,
  0xbebe23507eb0b14U, 0x1124f21d0efe2204U, 0x2906f9fff725ecccU, 0x44fa1df8db1c07e4U,
  0x17ee0311e60f01f2U, 0xfe11fde9d80ce006U, 0x90adddeffeadd07U, 0x122debe0e401f230U,
  0x81ff9e8f0fceb2dU, 0x21c0cf9130eeb3fU, 0x818f4f305f6ec25U, 0x1c1308f9fdfbe912U,
  0x1df319f102feec08U, 0xdf6f2fa121107f1U, 0x2411f81ffb0a17ffU, 0x211c05ed07fefcf6U,
  0x33090f080d16fefeU, 0x2aebf5fe0c141ff4U, 0xf70601ec1912f3eeU, 0xf5e106ebeb0b2205U,
  0xeae3ff310afbee0dU, 0xfc15f81a07e30918U, 0x1f10ea01e52af2ccU, 0x3c0e0116f61302d9U,
  0xc0702f7f1041702U, 0xf405e9f0e6f41f02U, 0x206effce9f7e4fdU, 0x1c30e6e9ebf1f126U,
  0x19300410f1030f38U, 0xf218fee205fcfb1fU, 0x281d05f20ef5f21cU, 0x1a1a030a0ff0f012U,
  0x61cf5ef1308f3U, 0xe0a0618031d12eeU, 0x2406ff080dfaebf0U, 0x3308ff0e0f0a030fU,
  0x190705fbfb0e00fcU, 0x1a0cf7151112e7e8U, 0x1ee25f2eb0828f6U, 0xf1eff2f0faedec03U,
  0xf4f4fa4101ef2302U, 0xf620de28f9f5f515U, 0x2c0decfee421dec7U, 0x2b0e121df01024eeU,
  0xffdef0801fdf806U, 0xe316e5f1dfe1edebU, 0xfc23f0d8f6f6fc08U, 0x929e9f4e7fff52bU,
  0x1429ed0b08ff0c2bU, 0xf92210f618ebf53cU, 0xfe2ffaf60c022317U, 0x91c07f003fdeb1eU,
  0xf0fe03180f0de1faU, 0xf7ef061402100becU, 0x70e061ffe050beaU, 0xf70905070101e100U,
  0x1d04030512f715efU, 0x1808000506121004U, 0xfd0712f807faf2d6U, 0x9f309f8fb0400ddU,
  0x6f8f52709e8f0fbU, 0xf829fa1ff60e0201U, 0x391ae31df82201d6U, 0x2a1dfb12f5190d0aU,
  0x1318ecfdf20cf603U, 0x130f801dde81afeU, 0xfa23ebffe7e4fef8U, 0x1018f80ae7fcf02cU,
  0xe1dfaf1e8fa0123U, 0xc170cf9f5e4e717U, 0xf0b051917e1e813U, 0x1614e0feffed23U,
  0xffee18fbf50b1c0dU, 0xfef6fa050c18f3ffU, 0xf00ef8ef09f8f8feU, 0x111607f6f80cf800U,
  0x8072001ffffeaf8U, 0x15080ded06fc1cfdU, 0x1fe02001b0125f0U, 0xe1e40ce5f1fd0105U,
  0xef15ee350eeefaf0U, 0xd1f051ff501f90aU, 0x30180223f5fff4e1U, 0x1d29060d040df0fcU,
  0x260dfd13e50608f9U, 0xf60cdf05f2dc09efU, 0xf90febef08f8d9f3U, 0x1215f0f7e0ff033aU,
  0xb0ee20404f10b41U, 0xe908e7fb02ea032cU, 0x411f3fa1cf2f322U, 0xb241f1a0f02f51fU,
  0xf6e8020006f31f06U, 0x910f8fb2e07e8f4U, 0x617141cfeff0ef0U, 0x2912131101faf1e2U,
  0x702fdfdfa1f0ff1U, 0xfeed0101040efb0eU, 0xfff0af6ef08fddeU, 0xecf910ea020ff2e7U,
  0xf7e2dd461fea09fdU, 0xf62ffb33e9f7f508U, 0x2e2af711eb151db5U, 0x3422fa15fbf41d08U,
  0xf503f9fafdf606ffU, 0xf1220801ead5f4f4U, 0x312ef0ce5d106f2U, 0x3439071b05f70208U,
  0xf729f60c0be3e221U, 0xff05fd1afffc0a24U, 0x415fb091a0a0effU, 0xfa11fbfc00fef703U,
  0xf2d823fced060e1dU, 0xecf5fe29160fe504U, 0x1105111d09eb0ee2U, 0x1a0e1912021229e4U,
  0x405fdf50905f9eeU, 0xf40bfef20117f1e4U, 0xe9ecfffe06040dU, 0xf3fc15f1fd0303ffU,
  0x2ec013cee09feffU, 0xf3320716eb20f6f0U, 0xe28e611d402f0ceU, 0x2623d91eceee21e3U,
  0x70be601f1f9fa06U, 0xfc12f8efe3bc21dcU, 0x13000a15d4f5fee6U, 0x3621e31ad6f3ecfcU,
  0x1c1300ffe3e9032aU, 0x14200b24f5e5200eU, 0x150a2f1b04f813U, 0x180f18030d111af4U,
  0xfb03151ff2fb1f04U, 0x7f41f1b0bfb170bU, 0xfef60f14f4f8f9f9U, 0xa1b041801ff0bddU,
  0xf700010216f9e7edU, 0xf3020bf806f007f1U, 0xf4d9f50401fd20ffU, 0xe2f00004ffe8f2f4U,
  0xf4fbfa20ef1bedfeU, 0xd08e4effb071802U, 0xb1c0cfdc6250ee1U, 0x91bf511d41c01f0U,
  0xf01410f9e313dafbU, 0xefbe4f4cf1ffdf0U, 0xfcf7e6fcdced110aU, 0x21ee1104e40be113U,
  0x2b0308fbe407e114U, 0xf809091b020df627U, 0x120910010b0f1914U, 0xe02f5fbf318f503U,
  0xf00b2518fc07000dU, 0xedfa14240108e6f9U, 0x1a1aee08fe091fe5U, 0x1111f9fe0cff0005U,
  0xd01e4f0f908feeaU, 0xf8f3ea19ea0b00f1U, 0xf2f0effb1f1c1208U, 0xfce9daf9fa03e114U,
  0xf17fcf70412fff3U, 0xfa1eeef2e50329fcU, 0x1e1015e1f425ed04U, 0xfd2108e5de041cefU,
  0xa0026daca03eafdU, 0xf5e41ae1d4f005fdU, 0x10f003d4dffae707U, 0x1e0ffbe3edf40c15U,
  0xb1613eaec000916U, 0x81307fb00fffb01U, 0x8fcfafb0012e4f4U, 0x10f326e81c0219ebU,
  0xe2f7ecfb02190f09U, 0xd9ff080bf311fafbU, 0x19ff2207061812f8U, 0x2102faf2130a0bf5U,
  0xf70ee1ec171711ebU, 0xf0ededf1010ed8e8U, 0xeedbf9f0fde7f709U, 0xd7d40bf50af8fbdcU,
  0x9fd130c06180608U, 0x28f500eff4122613U, 0x1e0a1a210e04fe18U, 0x2217f3ec0f0df009U,
  0xf20908e9010eec00U, 0xf51409d90bf008f2U, 0xdf2e911f41904f6U, 0xfd01040c050a1720U,
  0xfeff0bf20c1bfbf4U, 0x1f914f50efad801U, 0xeaf9f9e802faf804U, 0xaf70b011eff07f1U,
  0xdaf805f3ecfd0cf7U, 0xfefa10f9eef6150bU, 0x1915ff05ece6f008U, 0xfe06010809fc111fU,
  0x28f6f408fbfb0804U, 0x10df80b28f910U, 0xf6f4e9ea080502ffU, 0xf7f90afe1fdfea01U,
  0x303f2f6ed061b0cU, 0xf8f40b0a10f504fdU, 0xecf10be7fe05e7f1U, 0xfe1b05deee06ecf4U,
  0xed051004ead9f313U, 0xb0502fa100b0215U, 0xf7051415f5fc0702U, 0x13fc06faf4f6fe0cU,
  0x6ec2302fa09e4dcU, 0x230b2827faf81311U, 0xf2ff130f1709f1ecU, 0xf0126030df50afcU,
  0xfff202f0e6fbf1feU, 0xf60b021cfdff1102U, 0x511f028210b0c14U, 0xf1f8eff20af9ed06U,
  0xdb0800eaf7f90dfeU, 0x11620ef04fe0f02U, 0x40019f622e4ede8U, 0x50801ec0deb1301U,
  0xf927f71202fe0e0cU, 0x1eed13f724fe18fdU, 0xc04f812f4d8ff09U, 0xee13011d17fd111cU,
  0x15fe16f606f8f311U, 0xf7ffee25001fdc16U, 0xe80814f115dd02f6U, 0x8ea071af0ea21e5U,
  0x11ec1713001ee4eaU, 0x3a031504171811d6U, 0xefee5e6040702d6U, 0xa061cfffbfcedffU,
  0x604f5211aeaf9fbU, 0xf9f9e204ea16e30aU, 0x710fb06fc0ffbe6U, 0xdc07ef16fc071307U,
  0xf70614e9f4081f12U, 0xf2f304e60c010cf1U, 0xfe0720f61deff3e5U, 0x20b0efd10ee05f4U,
  0x211c0a26fb07d80dU, 0x16fa183706f41f06U, 0x902f912f0fb241eU, 0xa02f217f9f31617U,
  0xdd0ff9f025e3e72dU, 0xea0a17f1fc04e615U, 0xc5f4291311f10724U, 0xebf1e10b13ef07fbU,
  0x5f2151f08091bf8U, 0x300110160f09dd02U, 0x70e0ef1fe27e0f2U, 0x7010ffe180b07e6U,
  0xbf7f3fbe71007f4U, 0x802140c251815f9U, 0x14031aeeec100f0aU, 0xea0b0d18ff25fa0fU,
  0xfaf7eee70c10281fU, 0xee1200011d0c1503U, 0xf804fdf30bf8f101U, 0x7fd1002f30e1e02U,
  0xc0e083e1003090bU, 0xe1ed1a271cfde7f4U, 0xf112071ef1d9dc08U, 0xdc1d030f08c8fb10U,
  0xc90e08ff0af90423U, 0xe805e0ec07010a39U, 0xdbedf8d6fae1d814U, 0xeddc1c0f17f51dffU,
  0x12d2e7f51304ffffU, 0x31f90e231113e1dbU, 0x13f9f2200a07efdcU, 0xf211e7dbdf2a1cffU,
  0x200203150028fbfdU, 0xfe09f6131319f707U, 0xe14fcf5f51420fdU, 0xf61df6f90415fe17U,
  0xceeee900fdeee41bU, 0xf805060d0205200fU, 0xf310f1e61716dfefU, 0x1102f8e7fbdb0406U,
  0xe8fc0a27fa0a0dffU, 0xdddfee0d0df01711U, 0xe62eef00f7d615f1U, 0xed0808f004d5fd24U,
  0xe6180bd009e10722U, 0xd60208f9e2e50a3fU, 0xcae2f80e00bd1513U, 0xdfcb1115efe60eecU,
  0x8e5f9fb102203f9U, 0x30f800fafc1011e1U, 0x1904e212e81408e5U, 0x25f8feecf333fa0bU,
  0x2bffde00ef2821f8U, 0xa19fdcf0c10fc03U, 0xdf1c02fd0cf7f20cU, 0xecfb15ce0bf00d26U,
  0xd8fdfbe2e5f9f627U, 0x60209caf2e9ec28U, 0xfb020ad50105fa0cU, 0x1009f1ebfedd1704U,
  0xf4edf726e000ff12U, 0xe806f50207faf200U, 0xd60bffc2f2dcfd03U, 0xc50908d9f0e90425U,
  0xf018f31113f61223U, 0xdc1702eaedfefe34U, 0xc4f2feeafeea1b1bU, 0xd4ca090d0de904fdU,
  0xfd6ef0fff1e04e1U, 0x3bf5e833d626f8d5U, 0x201e508e839e8f1U, 0x150bebd00a19f604U,
  0x17f4d8f4f6230ef7U, 0x1ff9fdd701142523U, 0xe00ff5f5180a111bU, 0xfa14f2e2dbe5012eU,
  0xc1fc0efdeae2002aU, 0x600ecf9f60835U, 0x5080beafe01f60bU, 0xc0cf3eefdd7eae4U,
  0xfd131017eefd020dU, 0x7feedd40cf80307U, 0xd12c18c203f4eef4U, 0xe31c10edfadbd833U,
  0xed20eff6feea0a37U, 0xcf0afdcaf3f5f732U, 0xd6f0101807de100dU, 0xcbc408f91aeb040cU,
  0x7ecf629fc190be4U, 0x2bec02fae92bedf3U, 0x131200ede82df2f0U, 0x13fc0405f03d1aedU,
  0x22f90206f2400110U, 0xf914e8eb0018ff24U, 0xea08fde503ffe025U, 0xeaf5e4dee7050b2eU,
  0xeef8ecede7f4f43aU, 0xf7ff16f705db0a30U, 0x413f8cee4ef1ffaU, 0x408f9f903e101f9U,
  0xfdfd28f7e7e4faU, 0xd20a0cec0aeffbfcU, 0xe51cea9dfbcdfb05U, 0xab0df3f00beae825U,
  0xe02903e200eb0e49U, 0xd61a0ccff8f7063dU, 0xe0db0ceffffdef1fU, 0xd1b2fce71adf0620U,
  0xadef70c1f0713dfU, 0x2ceb0d29f51adfdbU, 0x14f504effe260ecfU, 0xe060efeff341309U,
  0x1af1fee60b2af910U, 0x1214d80505292936U, 0xed0fdfd7ff180b26U, 0xd20cef0becfcf731U,
  0xd1fbe4effe04f930U, 0xed13e60cf0eee532U, 0xf414f4fae0e40b1eU, 0x6fceaedf6d9f718U,
  0xb1b0305ebedf5fcU, 0x516f101ef0bffU, 0xe10f14b410db0aeeU, 0xba1711c3f8f0fd1cU,
  0x80cf1ea01e61547U, 0xd4f500eaf7f0154aU, 0xead817f40ce0fff1U, 0xc9c707fb18d5ff03U,
  0xadbea220d15f3ddU, 0x35fc042de51d09d6U, 0x1b01ead7f1330ec6U, 0xff7f1efff2a010eU,
  0xdf4ff0ae83b00ffU, 0x2612ecdff717041fU, 0xe313d6e7060c0736U, 0xe211f3e0f5000930U,
  0xe50005ec05f60d38U, 0xf118d800f8feef24U, 0xb06e4e0fcf20b26U, 0xcfedee8f6c6051aU,
  0xf7fb1b18e2fe0903U, 0xd071beff6fef106U, 0xd6171aadf0ed0a01U, 0xc415f1caecd8fd37U,
  0xf20d15e9f0edf133U, 0xf60f10fb0efdde36U, 0xc1ee0be5f0ea0cf9U, 0xe4d000ee1fe8f410U,
  0xfeaea12270713e7U, 0x31fb09feee14f4eaU, 0x1af7f5efe71c1bdbU, 0x7fa04fbed2c0106U,
  0xffcd8fc0d2bec19U, 0xfe0adac9f32dfc1fU, 0xf321f6e809fa0029U, 0x121f0e700f81a4aU,
  0xd715e306e900f322U, 0xdf17ecf3f1070c3dU, 0xf617edebfefd1b29U, 0xc0ff3f9eeea0a23U,
  0x1707141ce8edf5f8U, 0xd50710edf7ed0d0bU, 0xc919f6b5f7d609f2U, 0xb02af9c4f5e81525U,
  0xeb1df7f011020e39U, 0xee0108e015021039U, 0xdae802f204081e1cU, 0xcad30205fee0fbfaU,
  0x9d70d051610ecf4U, 0x27f7ed10f81ef6dcU, 0x17f8e0ecee2808f5U, 0x1afcf5faf12e23fbU,
  0x3f1e8fbfb32f710U, 0x1fef1caf925eb24U, 0xfa10eae50318072eU, 0xf11df704110f073bU,
  0xc807dd02ef08d924U, 0xdf21da17ec060d2cU, 0xa0eecf4f2fbd934U, 0xfe6fbf0db0f0fU,
  0xf308fe050501f904U, 0xf61d18fd01fbf20eU, 0xd22127aefccf06eeU, 0xbd3afbc9e0e00333U,
  0xf219ebe6f5e8044dU, 0xeafeffd9f7fc1d4bU, 0xe9e919ed000e040fU, 0xb5bc170114ef11ffU,
  0x3d4010f27220cefU, 0x1c0af0f9ff2501ceU, 0xcf4f1f4ee1c0fe5U, 0x1ffcf1d5f41c0800U,
  0x7ffe4f703180011U, 0x13fdeceaff181a09U, 0xda11f6dffa0cf82bU, 0xe112ecfffffcdc2aU,
  0xfa12d1eafeebfd37U, 0xeb0ce0f7f00d1a28U, 0xfc1be7eb00eb1435U, 0xe1ae5f904f20009U,
  0xea0d0f09fef81208U, 0xdb020decf2fee103U, 0xca2913ca01d41d04U, 0xcd2c0bdbf1e20428U,
  0xff1512d0f4e70044U, 0xf41c11d9fd051142U, 0xdaec1dd624f2ec15U, 0xd0bd0bf222e5ecf5U,
  0x2f5ed011b0705ebU, 0x1904e51cfd1508cfU, 0x20fbfbdef32225c7U, 0x17f508f5fe25ebf6U,
  0x6e1eceef91c040eU, 0x1805feed132aff12U, 0x605d7ea13092025U, 0xe117eaf00aff2533U,
  0xe90e00040a0dfa30U, 0xe807ede8020d2016U, 0xfc18ede1fad9f13cU, 0xe0bd1fe05e309f0U,
  0xfc081e30fbfd25f5U, 0xf5161ee5fcea210cU, 0xe92721c4eaf0fcf4U, 0xe237fee5ecdbdb2bU,
  0xf219f3e4ecfa2546U, 0xf71010ebfb00064cU, 0xd5e821ee18e9f82aU, 0xbcb2f9fe24ed0af4U,
  0xf1e108072f001df3U, 0x2002fd22fe2727edU, 0xf0afff1ec2505d8U, 0x22f7cae1fd46fee6U,
  0xcfbf70ff5210803U, 0xb09e4e5032d14fbU, 0xf70bd6e92801e61aU, 0xf017ed0bee11fb2cU,
  0xfa17cdf8fa08f53cU, 0xec0aeeedf511ea39U, 0xf715c8faf9e7d641U, 0xfefdece808e30e08U,
  0x16022609f4e900f1U, 0xdb2203ff01ef01f0U, 0xd42801c4e5def5fcU, 0xce2f04d5ecd00838U,
  0xf51bf0dfe7f9eb4eU, 0x80d0ad509f6f142U, 0xdadb19d70ee20504U, 0xb0bd140e15de25e1U,
  0xf7d80df81e24e5e3U, 0x2502f007f518fff2U, 0x11ef05e7df2e1ed5U, 0x3609dee1f447e7e8U,
  0x18e7e512f511111aU, 0xb09ea05032a1701U, 0xed11d7eef0170412U, 0xf321dc02ff16173cU,
  0xd010e2ecef13e52eU, 0xda0be5e001ffee2eU, 0xf605db07fbf6f81fU, 0xdf2f5f910f0f30cU,
  0x1e060d2bfff6f710U, 0xe9fe23f201e90cf3U, 0xd41b22bbf7dd12ddU, 0xdd27f9f5cfd42938U,
  0xf90efc09e5f20047U, 0x31d25ecfd020a34U, 0xdada17d01bf10915U, 0xceb902f115e307e7U,
  0xfad9f7fe31100ce6U, 0x3ffee719f433ededU, 0x18f5dcf2e62e06e5U, 0x2cfee4e7ee2f01e6U,
  0x1e06e2070520f703U, 0xc0ef8ea032fed05U, 0xec1ce1e8f420ff1fU, 0xe930caf5fd051e22U,
  0xf817dcf2ff14e430U, 0xf102c211010be126U, 0xfa15f1ed05021036U, 0x8fdd3e8f1f7f817U,
  0xf00b0613f5f527fbU, 0xfdfe12ec0ed7f901U, 0xbf1c09b2f1d825eeU, 0xde240edbeac8ea34U,
  0xfe2006f3e0dcfe47U, 0xfe1619cd1418f62bU, 0xccd722f411f8151aU, 0xcabb02f914dc15ddU,
  0x5e40c2a1e0df3e3U, 0x17f6ed20072a18e0U, 0x3703cefbd62af4cfU, 0x2905e0e5fb1dfde2U,
  0x140cf401f72316efU, 0xf614f912f931eeffU, 0xffedcd80f0bf60cU, 0xc0bd1040901fa37U,
  0xf418c2edf90af329U, 0xf71fedf7080f1825U, 0x1afaeb00e4f00e4fU, 0x506ccf0fce9030cU,
  0xf30a0a16e20412f2U, 0xe20efc10fddcf30bU, 0xe41b06b1fff0fee0U, 0xd91e0cfac3c61330U,
  0xf71deefad6e11157U, 0xf11e24ef05f0ea37U, 0xc8f518d119ebe810U, 0xd2b3fff21ff5ecf8U,
  0xf5e017072e060ee6U, 0x1de808160720f902U, 0x1ffbcef2da3408d3U, 0xfb05ccdfdb2d00e1U,
  0x2813010bf93300f7U, 0xe90d030ff82407f8U, 0xe00cf5edf918fe06U, 0xe827cefb06f90e2cU,
  0xed25c80e01f91929U, 0x1edc10fe01eb30U, 0x40ec8fc00f9101eU, 0x1b0fd8fe02f00413U,
  0xaefe212def8e1f7U, 0x15252a0ef1dde002U, 0xdc27fcbff0f402ebU, 0xc93320e8bfe90f42U,
  0x42c0203f3ec103fU, 0xf3f1ce5f90a0638U, 0xd7f403e606e2250cU, 0xcbb603fa2fe7f6feU,
  0xffe01efc2c0a11f1U, 0x1e07fa10f31dddc2U, 0x27e80af1e60720f6U, 0x1513eefded24f5f1U,
  0x321dddf9e522e2e9U, 0xe0bfdee0025fa04U, 0xe415f0f8010ffa23U, 0xe119c3e7f910f721U,
  0x121d7eff4edff34U, 0xee0ae5f3f2f7ee31U, 0xa08c2070cf21e2eU, 0xf8fbd6f9fc001414U,
  0x6ef2115e0faf1e5U, 0x2180b0bf4f500f9U, 0xc91d32ccfddb04f5U, 0xde260fcfafd9123bU,
  0xfb2e1122d3dbe435U, 0xb370feb02fdfa36U, 0xdfe010e018dd1d14U, 0xe5c4fbf719f0f914U,
  0xf1d8f71a310111e7U, 0x2e9e4fef921f3e9U, 0x1006ecfcd71406d0U, 0x2103e3ece71cf0fcU,
  0x3616edf3f01204e4U, 0x719ebdf1113fd02U, 0xfd1df4f808f90c10U, 0x90cec080af4161dU,
  0x151ed110ee0be03dU, 0xd9f2c705f3faeb43U, 0xc16cefde9ee2025U, 0x50bd6f9060a0627U,
  0x15f20110d2e802e8U, 0x1b32f0fee2d30409U, 0xf11c10cbcceaf5d9U, 0xdb12fecabfd4023bU,
  0xf41a1013e7d5f83bU, 0xf73cf4f4ee080938U, 0xf4ee04f4fae40415U, 0xedd51fe23be9f807U,
  0xded806214918fde6U, 0x14f708defe1bf0faU, 0x1bffea00cf1d0fc7U, 0x2316f4f1d90d08d5U,
  0x4921f2f1dc290cd8U, 0xf917f8f00108e2fcU, 0xeb09ecef1afaf50fU, 0xf71ae91109170c1aU,
  0xec0add0107fdf929U, 0xec15d2e2fd031522U, 0x40ecc0bf6fcd74dU, 0x719eb0dfbfbf703U,
  0xf7ea0722dee5f4f4U, 0x190f0403eec823ebU, 0xe70efef7d006f8c3U, 0xf18fb00b8b0020aU,
  0xd231509dce9f722U, 0xb2018ebede21322U, 0x4e10edbf102fc12U, 0xdcdbef061af30fdbU,
  0xe3c1fd202a00fbddU, 0x280f0014f21401efU, 0x81cfa09dcf4ffd9U, 0x3020dbe4f40a03d1U,
  0x2216f726e21106eaU, 0xc1dfbf6f50207f9U, 0x820de11f9070a16U, 0xfcf4f70c0b0a0419U,
  0x1a0edc0916f8f141U, 0xe2fde001fee71f2bU, 0xfb0bec03f5f3ec34U, 0xfa0d1406fdddf604U,
  0xe0eec01ca0af1fcU, 0xfa16fef2d4eed7ecU, 0x13edeec4cbef0dbdU, 0xf300e3f1b1f81910U,
  0x29142715c6def60cU, 0x2f0b00e7f5f4f615U, 0xf9f308fd0f03ef0cU, 0xd1c81b15340d05f9U,
  0xf4e91112220a1bf2U, 0xb14f8f203202ae1U, 0x504d8c6bf0ef4d0U, 0xfaf7fdeac904f4f8U,
  0x2925110cde111be3U, 0x211afa02efef02e5U, 0xedfae50405080919U, 0x1212e8f617fa262dU,
  0xf119ebf7000dfc31U, 0x721d308ec14062aU, 0x727d8fb0b02e332U, 0x2a2cf70af5f5e605U,
  0xef9f6eaf7da1bd8U, 0xe31206d6c7050cf8U, 0xfae6f8c6dbd8e1e1U, 0xf3000fe1e7f8070cU,
  0x1eeffcf5ccdef003U, 0xfafce903f4fb1316U, 0xadb0df10915e815U, 0xd4d8f8041af509e8U,
  0xf5f3fe092925ee04U, 0x4fe12f519150ad4U, 0x1209febedeeb01e7U, 0x803ffc7efe013dfU,
  0x1e220ce4e019f2feU, 0xf61706f9f216f705U, 0x17fddcfe08231e0cU, 0xee0803010ff5df11U,
  0x1a160c1b0b021bU, 0x1619f3f4f814260fU, 0x1e2b05f1f9d00a22U, 0x2a3fe70506f5ef1eU,
  0xde1b20131415f006U, 0xd170408f8330510U, 0x131c2528ed01f60fU, 0xf01ff91cf3fbeafbU,
  0x240bf710fff817fbU, 0x13160af70c0d0004U, 0x14f8eef5f10a05f8U, 0x101317fe1bfeed0eU,
  0xc080be5fa1c2112U, 0xf00a050def031b10U, 0x1802effd00151104U, 0x13fdf702f6fa09f4U,
  0xf8fa0f17f9f713efU, 0xfefa15f0ef04ff15U, 0xf7fb021c06edf4f0U, 0xecf6f0f4ef0cfb05U,
  0x21e5fd02eff5f317U, 0x9f70bf1081ef10cU, 0xf8ed0efbf2f9f21dU, 0xeff41adbfdf0ddfaU,
  0xee0606e2df0f060cU, 0xe41a15f9fc170dfaU, 0x2007041bfc1a0cfbU, 0xd1f1926f20f09ffU,
  0x1b0105fd03031602U, 0x50cfb1321fa110aU, 0x14151b22dce4ddf3U, 0xb0bf4f8f700e80eU,
  0x210122e10fe321fdU, 0xe1118e210091f0bU, 0xe9f611fd121401edU, 0xf7fa22271bf5e120U,
  0x5f40d06dcf613feU, 0xc2815e40b0d20U, 0xfbf30e060a0c07f5U, 0xebe403eff40804feU,
  0xfaf41debdbedee06U, 0xeff5f8f711fefc0cU, 0xfefd17dc1bfce7U, 0xfd04210ff7f1f4eaU,
  0x10919fd140a0c0dU, 0xfffb25e00c0ce2fdU, 0x91012190bf6180dU, 0xa1303101c12060bU,
  0x2601e42101090f05U, 0xff0bff001905f4f9U, 0x2f0ff5edeee70916U, 0x2ef7ee100a0319eeU,
  0xefc0007eef708f4U, 0xfbfc11ed050812f0U, 0x3faf90c05f125f7U, 0x11fce7f82504160cU,
  0xeffd060bfad8190dU, 0xdcf104f90efff613U, 0x2f707150bf6e1fbU, 0xeff107ebe3fdf10eU,
  0xf900f71007f8fe03U, 0xffd8f51df2f90ef2U, 0xf4fe16031b2a18e6U, 0xfc07fefe0104fdf5U,
  0xfdea1502eb15fa0eU, 0x2a091afeedfee504U, 0x341a04f1f8fbdf1bU, 0x1a10eceff50df907U,
  0x21e2210fe130f0bU, 0x211bfc11fa11f7e6U, 0x2e0ce4291618f412U, 0x3312f41df6200712U,
  0xc13fb0605feeef4U, 0x17f3eef800f00eU, 0xed0ad5f40ffcfbf7U, 0xe2f8f0d8efe9f5ebU,
  0xe7fa090b0af8f719U, 0xfdfe1a0002e8fc0fU, 0xe2f110e30fefe61bU, 0xf3010029060e0bU,
  0x9e0f8eaf7f20411U, 0xcf5fa0900f4130eU, 0x3fadefa0d0818ffU, 0xfffbea06eb1bf3f2U,
  0xf1f1e8f81710f50dU, 0xfbf30a090a0300f5U, 0x241ffae317e72633U, 0xf82c08ebe20207fcU,
  0xf717040beb041f02U, 0x1d17d53f00ed1cffU, 0x540eec171cf103feU, 0x3213ee08fa25f5eeU,
  0x1006e5ee0f09d80eU, 0xff13de09fbe4fbf4U, 0xdcfde9000aecf902U, 0xe209f80106db0406U,
  0xda09e320feda140cU, 0x800f3ff05e11214U, 0xff08fa04f3fdf1fbU, 0xfcfbf40afd0b1d01U,
  0x2e706f2fced19f9U, 0x1beb0c01fbfc0cf6U, 0xf4fce8f71d08ffffU, 0x6fcddedeef1fa0cU,
  0x1bdf07f9fc1adc05U, 0x9ede11601fc0c14U, 0x33bfc1b1ce4ee34U, 0x424dd0014ebf215U,
  0x424f932e6fdedf1U, 0x371af52f1403220eU, 0x5c0de64b0f0318f4U, 0x4e150c23e61c1ff7U,
  0x151304ffec1c05e0U, 0x30ef8dd0cec07eeU, 0xe2fcecf50ee81f0cU, 0xd3f3eae500f6fbe8U,
  0xd109ed1bfdd2fdf5U, 0xd60af0e9f7d4fa23U, 0xe1fe18f410e60314U, 0xf4e9f2e9fcf5250bU,
  0x3fd0217f900f50dU, 0xe7ebd3e314f5f804U, 0xfff6e6ee1714f309U, 0x805fa02f7f42611U,
  0xfbe6f7f1f70dff16U, 0xfcf5090402070404U, 0x61bf4232ae7d65fU, 0x725e32505e7ea01U,
  0x437de2509fbfbeaU, 0x23300a2f14ffe507U, 0x552bd21cfe23f004U, 0x4624ed14fe26e501U,
  0x1e0eefedfd0feee6U, 0xed0cf5e4ff120a05U, 0xc2fce51a130deafdU, 0xf00cfffe0fe20aefU,
  0xd804e1f600eadfffU, 0xd2e80619f4dc2026U, 0xf0f0060c02f10410U, 0xf1faf1edf5f41f04U,
  0xe4e5f104fbf80204U, 0xf3ebe31ceffef00aU, 0x6f8da1913011700U, 0x403eff4f7ea11deU,
  0x6deeee20e08e80bU, 0x1bec0200fafb290eU, 0xe930132f3adeff52U, 0xf3cd91d15e7f6ffU,
  0x833e71f13ee14e6U, 0x1f2bd919080c06fcU, 0x4d31fc2916241007U, 0x4925e220f23fd9f0U,
  0x1f22d9f2f50aece5U, 0xfbf708160a0222edU, 0xe1f61cf31dfbfb0eU, 0xd104f9ee0ff419cfU,
  0xdf07f524f1dae2f9U, 0xca08ea0b18dbf91dU, 0xf1ed170e04ecfaf2U, 0xe4e3fa08fdfc1506U,
  0xeeef09f508eefc0aU, 0xdfe6e80719e1ef06U, 0x9f8edee16f10deaU, 0xfc00daebf80cfbfaU,
  0xa0ce1f6fff5fe04U, 0xecca0715f5f60d13U, 0xeb23f84c26d00e50U, 0xf12af92c11e308ffU,
  0x1133ec150fe90be9U, 0x2741e33201010d0cU, 0x4d22e309072e0211U, 0x3b2cf525032705f1U,
  0xd17feec0b1600f4U, 0xe9f0ee0624fee7ffU, 0xd2fffa0819f21cfaU, 0xd20bf4f205ea0201U,
  0xe10ef2120dcd0df9U, 0xdb09ff0414e7001fU, 0xfaef01ebf906d9fcU, 0xf5f9e214fbfcf5fbU,
  0xec00f3f701fcfd02U, 0xe9f0ec11f100f2e7U, 0xf2fbee0104070a11U, 0xfbf0f1f2f0120114U,
  0x2617f9e801f80308U, 0xf8f2fe1ef8f7ea0fU, 0xf1efe531cd4003fU, 0xe34e71910edddefU,
  0x916e3290efadfdeU, 0x1d1ae032f9eb1206U, 0x5212f2310710edf3U, 0x333edc1af71ef7ebU,
  0x1a13fe080b1ffbe3U, 0xebfee9fc08fef8f4U, 0xf3fbe8021802f6e6U, 0xe602e60413d70801U,
  0xe518050ef0d401d7U, 0xd30efe1216d2e508U, 0xd5f30611f8e91ffcU, 0xfdf8d90a04f0fff8U,
  0xfefee61b06ff12f5U, 0xf306f8f118f6eedeU, 0x9e6eefc1404ea02U, 0xfcefd9fce7e3eef9U,
  0x190f11e2f6030c0aU, 0xe9e5f522e5ef1018U, 0x1622de4f0cdbf74bU, 0xfe24e019f8d11609U,
  0x922e31c12e5fbb8U, 0x3f33e13110f72905U, 0x3630ed2e0304edfdU, 0x563adc1bf52f16eeU,
  0x1631d703ff26efe5U, 0xf10302011308f1efU, 0xdaeef21205ff08f2U, 0xe609f10cf7eaecedU,
  0xf4200d0d10cc00e6U, 0xd407e400f9ec2318U, 0xf00601e601d216fbU, 0xf7050d0109f303feU,
  0xf31ff008fbfb02d4U, 0xf5040f1b0e02ebfeU, 0xe9f9dc06f7141ff0U, 0xf3ffff06f208ff01U,
  0x12fafbebfafc1a05U, 0xdd6fa1ce8e0f620U, 0xee2ad33b09e1042cU, 0xf32f00df7f1edf7U,
  0xf031fb2410000ec9U, 0x2527c72504f5ddf4U, 0x342cd130092e1116U, 0x3940c821f521f0e6U,
  0x181fe810f312f0deU, 0xf0faeddf1107eafaU, 0xe9f3e51005f3ef07U, 0xee0b05f901d6e8e9U,
  0xe216e6fd05e312f9U, 0xd20402fd00c5121bU, 0xf3f7e400fdf6ecffU, 0xe4fefa030df8faebU,
  0xf11bf2f4ff06e3dbU, 0x50ce513040102f7U, 0xf7ee030b03030af7U, 0xecffe509f3ff2021U,
  0x1618f2eb14060017U, 0xfefa031ee1eeec1fU, 0x1630d83f0cc90328U, 0xa36e128fbe9f803U,
  0xf229cd1c08ebe5dfU, 0x1320f12901ed0afcU, 0x461ac3350a17ec04U, 0x2022d128093cd7e0U,
  0x231deafffa28fad5U, 0xf008f1f10f0707e0U, 0xfbf0fa051b05fff8U, 0xee0609f91acce4e3U,
  0xe81dfff414d003f4U, 0xdcfb0b04f4d1f411U, 0xdd04f306edeb0c0aU, 0xeafbf2f5fceaf9dfU,
  0x41edbff0eee03e3U, 0xe904da0d0c041af7U, 0xf6fbe4f90c0004ffU, 0xf806fe0b001bde14U,
  0xf1f80defef01dc0fU, 0xf9d9e40ddff9f90fU, 0xa2ff94009e8ee2bU, 0xa23e70e01e9e8faU,
  0xf2bda040ed319d0U, 0x1936d32cfbf3e6e7U, 0x3223d02e1a03fe0eU, 0x3e29f61b092ae1f1U,
  0x2844dfece80a15ceU, 0xec08e7ff09fafdd9U, 0xebebf3111901eff4U, 0xebfe070f15dd1aedU,
  0xe61007f504d5d6ffU, 0xd806ee080cdae40cU, 0xf3f9fe0801e0f1f8U, 0xe0f2ff0af4e603dfU,
  0x140dfc021001ebd9U, 0xcfc09f31803f8eaU, 0xfd00f9f705f51f0bU, 0xfaf9df000716fc04U,
  0x1707ebf0f7f4fb0cU, 0xf2f80004ecf0fb20U, 0x2633ec550bd9f92dU, 0x529df250bf20af8U,
  0xfc28dd12f2e214d1U, 0x2529e63a02fd08ecU, 0x2d17f5320a09100dU, 0x2f29d028fc35fbeaU,
  0x1c34f3f2040f06cbU, 0xf80fedfdfc0508f4U, 0xd4ff02fe1609f0e9U, 0xf409f4f80ceb0aeaU,
  0xef1ae4fd0bd907f2U, 0xcf03e1f5fcd80814U, 0xfcf8100715db11f1U, 0xea01e7ffdef5f1e2U,
  0xf9feec180a02e9eeU, 0x16f9fcf1020ef309U, 0xed04f70e0d090705U, 0xeceedcf60404db04U,
  0x17e00be402f4fef5U, 0xfafed611dcf7e00aU, 0xa35f94406e6de35U, 0xf23d916fbecfffbU,
  0xff25d90b06dfefd4U, 0x1c22e5200af4ebf8U, 0x311ee1190c0df4ebU, 0x2835fe23f020fbe9U,
  0x1a2ae9fbe72806b4U, 0xa0e04f1ed0c15efU, 0xdcecea17040116ffU, 0xef110a1f1604f7f4U,
  0xf30210f50cd9df12U, 0xcb00020bf5d30310U, 0xf0fcf91ff1f623f6U, 0xafbf4f9f8fafef6U,
  0xeefcfc00020929d6U, 0x2f3f1f11efb05f5U, 0xe7f6040b0e0c1cecU, 0x1e7e5fe01270814U,
  0x18eee7f4fff6f01bU, 0xff08f407d6f8080dU, 0x28ef420be7131dU, 0x221afd1500f3f0f9U,
  0x50ee609f8e0f5c1U, 0xd1fdc130101f6f9U, 0x3428db150b0804fbU, 0x3239e316ed3a0bedU,
  0x243502f7e7200bc4U, 0x1d0cfaf1f81ce8fcU, 0xeaec010f12ff05f2U, 0xe00805fd15e703f0U,
  0xeb11dced1ee1f81bU, 0xe800f3f909eb1afdU, 0x1edef708e6U, 0xfa0df2e7f8f209e4U,
  0xf9f813f208040fe2U, 0x13f4e9121103fff1U, 0xe9f9ddf72b130c07U, 0xf6e4f9f6f61ddbfaU,
  0x3f2e7e7080deb0dU, 0xdcdceaf7e4d8d91dU, 0xef1afc38faee0226U, 0x1616e01a0bdff1daU,
  0x22502eef7fa04dcU, 0x812f511f608fbf5U, 0x2e20dc3af51be3f4U, 0x453cf809e430f5e0U,
  0x3035e409d82308d3U, 0xff050105f607fee4U, 0xd0503fd020df6U, 0xf20dee0619cfd6f5U,
  0xd921020412ef1801U, 0xf0150813e9eb0d02U, 0x1a00ed1706ec03eeU, 0x18f8f8ec09fcf2eeU,
  0xfefcf002f60413f4U, 0x10eec1b1c0a01e3U, 0x12e61400f51108fbU, 0xf1f5fbfc0715f407U,
  0xdfdbefe8e9012101U, 0xe1fd0416d1dd0a1fU, 0xfd16e138f4ecf024U, 0x170c042a0ce7ece0U,
  0xfe19fdec03f2e8dcU, 0x1cdf18fbf3f0f3U, 0x2234f61f0b18f409U, 0x3432cf23eb4522f4U,
  0x2a380bf7d429f9f2U, 0xfb17fe0b0105e609U, 0xea1d020cfd08eb00U, 0xe010fefe09eb0bfaU,
  0xe41109f315f006f6U, 0xe10c0517ede107f9U, 0x2e922eaf8f2dbU, 0xe8fafcf9f8f2e7fdU,
  0xf7f8f8040de9ebe8U, 0xf90ff2130c030df8U, 0x1faf708190ffde6U, 0xbfd090a051e12f3U,
  0x114e8d6fc020807U, 0xef070a0edaef1913U, 0xff19e94e1e05e034U, 0x151f05110efb04e1U,
  0xff25fcf9e7f9ecd4U, 0x1124172af601f206U, 0x2f33eb32fb1f1af3U, 0x3625f426f02c0800U,
  0x2732f9ecd51af1d9U, 0x17160cfae3f0f4fcU, 0xfdfffa1f1fe5f9faU, 0xda0912f00ee9020dU,
  0xf01303ff0ae5ea02U, 0xf31afc10ffe9f90aU, 0xa1005f4faf40ff7U, 0xfa0707e5f0f709ddU,
  0xf80efb01f7f8d702U, 0x1309051203fe0f07U, 0x7f7ec0f27fddcf8U, 0xe9e4eafbf812fc00U,
  0xf7f2ebd6dcffe0e9U, 0x4fd0006c4e91b0dU, 0xf81f0c2d13e9f946U, 0x827e50511140cd3U,
  0x1011f804dddfefc5U, 0xc14e73c03fbe7f0U, 0x1a2df2230a1bf6f4U, 0x342b051ae732ff08U,
  0x2a2cdf02e8000af1U, 0x103e4fceffce603U, 0x1113030515e9ee03U, 0xf3fd0e1b22f5ee0eU,
  0xe2f806eb20dd020aU, 0xc1c16f90dde0e06U, 0x1d27f20f0cecf0e0U, 0x70a02f0f9f0e6deU,
  0xf7f1eef0fa0ff906U, 0x5f6ee1b0d0b02ffU, 0xff00170504171cffU, 0xeafb05fd1023f30dU,
  0xf1f3fff7d7071003U, 0x3f51c14cbd3ed17U, 0xf422f23ef2f7f647U, 0x1025f1f40beefcedU,
  0xe515fc10ef00f6d0U, 0x112bf22210eaf3dbU, 0x43251653f5fc0af9U, 0x6555e22dfc130ee0U,
  0x1c49000adf0108f4U, 0xfffdf6f9f2efdffeU, 0xfc09e80b14f602f3U, 0x6fb090311e5e2fcU,
  0xf5d50afa0df31a10U, 0xe40efe1ffcf2111aU, 0x2812041e06eed7efU, 0x11af0eef8060ef7U,
  0xfb0410191103fdf7U, 0x14fa23070616fad7U, 0xf7eee1041012f111U, 0xee0a07f80a0a0e21U,
  0x1e0112ecc4fa1f03U, 0xddff17f4cce8f1fdU, 0xdd27e73dfaee1045U, 0x131ef806f6f4f9d7U,
  0x1218f7f3e3f1e2e7U, 0x920feffffdb0ae4U, 0x2826142df623f700U, 0x4356e81de30fffe5U,
  0x1919e2e9e6f9fbe7U, 0xf80f0723e5f3fa08U, 0xf1f4052a11fcf3f8U, 0xf5f90f131ef1fbfaU,
  0xece7f0f003f909faU, 0xe90f20f6eee60cf1U, 0x13170a13f0fef400U, 0xe2f4fdf8fffb13eeU,
  0x300170314fc06e8U, 0x10eb201212f2fde6U, 0xf5defd110d13f702U, 0xeafb0506ff04f307U,
  0xfe031ae8b5000af0U, 0xf8f6dcd6c0e71a0dU, 0x522fa22f8d5f539U, 0xfc1b0a00fc2df4d0U,
  0xfd1a1d00fa1409e6U, 0xa0ef515ebfc18f3U, 0x272d0314051bf1f3U, 0x2b2806f6ef2218fbU,
  0x1217fed3e8efecdeU, 0xe5f3de00f7051301U, 0x3dfdcfd0b07fb03U, 0xfa05020e06fa000cU,
  0xf00cfbfd0c09edfdU, 0xf8f90a09f3d604e4U, 0x200f03f8f0dfefe2U, 0xf25e5e202f8e3f4U,
  0xfe0c0c04fde9f8ebU, 0x13e5011bfcfc0801U, 0xfeec06fe2007e8f9U, 0xffe7f50b0414ef09U,
  0xe70d16c4e909020aU, 0xf0f0e7ecd0f11415U, 0x138080bf2da0533U, 0x1f16f0d906d8fd07U,
  0x812f7f3d8e0f7ffU, 0xf4121bef03f6050eU, 0x222616f2fd020fe8U, 0x1a2216ebe6f707e0U,
  0x130f22d2eaf5010bU, 0xe9f311edfbf00815U, 0xf9fb020f180adeffU, 0xf8f6f4011812e8fbU,
  0xf91c00f515241ff0U, 0xec021201d5110a01U, 0xfbf7fff9eaf207fdU, 0x10f905eb01e5ec15U,
  0xf90e1beb0ae528feU, 0x2411feff0a1502deU, 0xf3eb0efd0800f803U, 0xf5def5fc0e14f7f6U,
  0xfffffdfa000001abU, 0xbaffffffa2U,
};


ai_handle g_micro_speech_quantized_weights_table[1 + 2] = {
  AI_HANDLE_PTR(AI_MAGIC_MARKER),
  AI_HANDLE_PTR(s_micro_speech_quantized_weights_array_u64),
  AI_HANDLE_PTR(AI_MAGIC_MARKER),
};

